<pad>	0
<unk>	0
<sos>	0
<eos>	0
an	-0
▁d	-1
▁s	-2
ar	-3
▁p	-4
▁m	-5
ah	-6
er	-7
ang	-8
▁k	-9
al	-10
▁b	-11
at	-12
in	-13
am	-14
▁t	-15
ak	-16
en	-17
ad	-18
as	-19
▁di	-20
un	-21
ik	-22
▁n	-23
ab	-24
▁j	-25
si	-26
ek	-27
em	-28
ai	-29
on	-30
ag	-31
▁l	-32
el	-33
tu	-34
ari	-35
ap	-36
▁in	-37
ur	-38
ol	-39
is	-40
▁y	-41
il	-42
um	-43
▁dan	-44
ul	-45
▁se	-46
▁pad	-47
eng	-48
ya	-49
▁r	-50
kan	-51
yo	-52
au	-53
▁1	-54
▁h	-55
▁yang	-56
ing	-57
us	-58
or	-59
▁ke	-60
it	-61
▁ad	-62
▁nan	-63
ut	-64
▁dari	-65
asi	-66
uk	-67
▁g	-68
es	-69
▁man	-70
▁ber	-71
▁per	-72
ir	-73
▁men	-74
ara	-75
▁c	-76
▁jo	-77
alah	-78
▁ko	-79
alam	-80
▁i	-81
up	-82
ta	-83
▁2	-84
▁un	-85
aj	-86
id	-87
esi	-88
akan	-89
ud	-90
▁ter	-91
im	-92
aw	-93
▁ind	-94
and	-95
ung	-96
ian	-97
et	-98
agai	-99
ok	-100
▁dalam	-101
ant	-102
amp	-103
▁w	-104
ay	-105
▁19	-106
eh	-107
olah	-108
ia	-109
nya	-110
ama	-111
▁tah	-112
adi	-113
atan	-114
▁pada	-115
▁seb	-116
▁untu	-117
eb	-118
▁f	-119
▁pr	-120
atu	-121
▁20	-122
▁tahun	-123
ga	-124
amb	-125
emb	-126
▁bar	-127
▁sab	-128
ali	-129
ti	-130
▁pado	-131
nyo	-132
ain	-133
▁at	-134
engan	-135
ikan	-136
onesi	-137
▁indonesi	-138
ih	-139
▁dengan	-140
▁indonesia	-141
angan	-142
▁mas	-143
▁pen	-144
ac	-145
ub	-146
eg	-147
amo	-148
om	-149
angg	-150
▁ini	-151
angk	-152
ed	-153
uah	-154
▁adalah	-155
tr	-156
▁adolah	-157
aan	-158
▁meng	-159
jadi	-160
▁mer	-161
aran	-162
▁pro	-163
ter	-164
ahan	-165
iko	-166
uh	-167
▁mar	-168
▁ban	-169
▁ju	-170
ingg	-171
▁atau	-172
▁mem	-173
uan	-174
▁kota	-175
ua	-176
aik	-177
▁bah	-178
anj	-179
▁untuk	-180
▁kab	-181
▁ka	-182
▁sel	-183
▁sebagai	-184
▁par	-185
▁untuak	-186
yak	-187
oleh	-188
uik	-189
▁sum	-190
ep	-191
▁mal	-192
uang	-193
aro	-194
asa	-195
op	-196
▁al	-197
ong	-198
▁sabagai	-199
iah	-200
urang	-201
▁200	-202
aya	-203
▁is	-204
▁bag	-205
▁oleh	-206
▁itu	-207
ati	-208
▁201	-209
aman	-210
▁barat	-211
ra	-212
▁dek	-213
▁kar	-214
og	-215
▁dip	-216
usi	-217
ri	-218
▁neg	-219
▁iko	-220
▁dis	-221
▁as	-222
emp	-223
oan	-224
▁ak	-225
alu	-226
▁mel	-227
ent	-228
eri	-229
aun	-230
▁sek	-231
ukan	-232
▁dit	-233
▁kom	-234
▁dik	-235
▁lain	-236
▁sumat	-237
asan	-238
▁pem	-239
▁dib	-240
onal	-241
▁ar	-242
elah	-243
▁satu	-244
orang	-245
to	-246
end	-247
ip	-248
▁ia	-249
▁peng	-250
int	-251
isi	-252
od	-253
▁sar	-254
▁sm	-255
ind	-256
▁padang	-257
tan	-258
▁um	-259
▁dap	-260
ika	-261
wa	-262
▁pul	-263
▁kec	-264
▁an	-265
▁min	-266
00	-267
ato	-268
▁bab	-269
aten	-270
.1	-271
▁taun	-272
▁pan	-273
angun	-274
▁ag	-275
▁sep	-276
alan	-277
upaten	-278
▁salah	-279
▁tan	-280
▁kabupaten	-281
▁ab	-282
▁ant	-283
▁tim	-284
▁juga	-285
▁ut	-286
▁v	-287
▁kel	-288
lah	-289
adang	-290
iri	-291
▁menjadi	-292
ib	-293
ata	-294
ist	-295
uak	-296
▁sa	-297
upakan	-298
ala	-299
▁mang	-300
▁kem	-301
▁3	-302
▁inyo	-303
ebut	-304
ilik	-305
▁da	-306
▁manjadi	-307
os	-308
ingk	-309
ilm	-310
▁pend	-311
arak	-312
▁banyak	-313
imp	-314
▁memb	-315
▁tu	-316
api	-317
▁merupakan	-318
▁pert	-319
▁sal	-320
▁sp	-321
▁ser	-322
wan	-323
arta	-324
aso	-325
▁kap	-326
▁bagian	-327
ayah	-328
▁mam	-329
tas	-330
▁sak	-331
inggi	-332
udian	-333
▁ti	-334
amatan	-335
▁sur	-336
▁tr	-337
iliki	-338
▁kep	-339
erah	-340
▁bi	-341
▁nag	-342
▁pand	-343
gun	-344
ingga	-345
▁ker	-346
▁mus	-347
▁marup	-348
▁o	-349
era	-350
ch	-351
ulai	-352
▁samp	-353
▁negeri	-354
▁kecamatan	-355
lam	-356
onyo	-357
man	-358
iv	-359
gr	-360
▁bel	-361
▁pam	-362
uku	-363
▁si	-364
▁bal	-365
eka	-366
oh	-367
▁mamb	-368
▁pang	-369
af	-370
▁kon	-371
▁komp	-372
okan	-373
asional	-374
▁pol	-375
idak	-376
▁so	-377
umb	-378
▁sumatra	-379
insi	-380
▁alah	-381
▁indak	-382
ersi	-383
▁meny	-384
anggal	-385
▁berb	-386
▁daerah	-387
▁wil	-388
▁wak	-389
▁st	-390
▁rum	-391
▁set	-392
▁tidak	-393
▁kat	-394
▁islam	-395
▁juo	-396
▁pas	-397
▁sem	-398
idikan	-399
empat	-400
awah	-401
▁sebuah	-402
uj	-403
▁spesi	-404
▁tanggal	-405
▁pat	-406
▁ters	-407
yarak	-408
ini	-409
▁ilm	-410
araj	-411
▁dun	-412
▁dim	-413
vinsi	-414
▁wilayah	-415
▁kam	-416
▁umum	-417
▁bak	-418
▁urang	-419
ada	-420
asil	-421
▁dil	-422
▁provinsi	-423
tus	-424
erap	-425
▁pal	-426
▁ac	-427
▁ai	-428
▁sampai	-429
ana	-430
esar	-431
▁saj	-432
abuik	-433
▁ek	-434
anjang	-435
▁bat	-436
uran	-437
▁bali	-438
▁sma	-439
▁masyarak	-440
▁lab	-441
▁kali	-442
angunan	-443
▁4	-444
▁did	-445
▁rumah	-446
itas	-447
▁dunia	-448
▁spesies	-449
▁leb	-450
▁sabuah	-451
awa	-452
▁or	-453
ot	-454
tur	-455
▁z	-456
▁ib	-457
▁199	-458
ampek	-459
▁many	-460
▁su	-461
▁am	-462
▁kal	-463
▁sej	-464
▁timur	-465
▁18	-466
anya	-467
dap	-468
ili	-469
olog	-470
antu	-471
udah	-472
▁sist	-473
awan	-474
▁terb	-475
ember	-476
ayu	-477
▁ch	-478
entu	-479
▁sistem	-480
▁5	-481
angs	-482
▁univ	-483
uo	-484
▁des	-485
enal	-486
▁med	-487
ulan	-488
▁bas	-489
▁ri	-490
▁universi	-491
▁seorang	-492
▁ma	-493
li	-494
arah	-495
▁pun	-496
▁beb	-497
▁de	-498
▁telah	-499
▁ado	-500
▁tab	-501
▁orang	-502
pun	-503
ses	-504
▁sen	-505
ungan	-506
▁tersebut	-507
▁pulau	-508
ni	-509
▁kh	-510
▁bud	-511
angkan	-512
ena	-513
▁bahasa	-514
inan	-515
itar	-516
▁mak	-517
▁dapek	-518
▁nama	-519
uek	-520
erti	-521
ota	-522
aitu	-523
▁tinggi	-524
uat	-525
▁nasional	-526
▁tanah	-527
▁ing	-528
ulu	-529
asih	-530
abau	-531
▁nagari	-532
ob	-533
▁selatan	-534
▁memiliki	-535
umlah	-536
▁minangk	-537
▁minangkabau	-538
▁nam	-539
▁utara	-540
▁sarato	-541
▁sumatera	-542
▁ket	-543
▁saat	-544
agi	-545
▁sas	-546
orm	-547
▁sat	-548
ado	-549
▁pel	-550
▁akan	-551
▁namo	-552
go	-553
apan	-554
ber	-555
▁batu	-556
ita	-557
anda	-558
▁aw	-559
▁mamp	-560
hir	-561
sia	-562
▁buk	-563
▁gadang	-564
di	-565
mad	-566
▁dapat	-567
inya	-568
▁mereka	-569
▁seperti	-570
ekn	-571
▁universitas	-572
▁pertama	-573
ologi	-574
▁sam	-575
erapa	-576
ayo	-577
▁th	-578
▁6	-579
inyo	-580
▁kes	-581
▁lebih	-582
alui	-583
.2	-584
ov	-585
▁198	-586
▁beberapa	-587
▁hari	-588
nah	-589
▁yaitu	-590
▁part	-591
intah	-592
▁digun	-593
▁teng	-594
arga	-595
▁setelah	-596
uter	-597
▁marupoan	-598
akarta	-599
ja	-600
ans	-601
▁197	-602
▁bers	-603
ae	-604
▁ap	-605
▁bad	-606
arang	-607
unj	-608
usia	-609
arkan	-610
▁karena	-611
▁baru	-612
▁negara	-613
▁kemudian	-614
▁lau	-615
▁masih	-616
▁suku	-617
▁put	-618
lik	-619
▁tar	-620
▁dir	-621
ui	-622
▁mah	-623
gi	-624
▁mulai	-625
▁pus	-626
▁raj	-627
▁tas	-628
▁tet	-629
ola	-630
▁tal	-631
▁ked	-632
▁namun	-633
tor	-634
▁sec	-635
▁sik	-636
▁kini	-637
▁lah	-638
▁pemb	-639
den	-640
etak	-641
▁labiah	-642
▁sy	-643
tif	-644
▁sekolah	-645
aris	-646
▁menj	-647
▁bangunan	-648
▁pemer	-649
akukan	-650
ern	-651
ekan	-652
▁para	-653
▁polit	-654
any	-655
usah	-656
▁bulan	-657
unan	-658
entuk	-659
ic	-660
omp	-661
▁hal	-662
▁ada	-663
▁anak	-664
▁bahwa	-665
gan	-666
▁pak	-667
▁awal	-668
▁8	-669
jid	-670
▁194	-671
uru	-672
arap	-673
anc	-674
▁kad	-675
▁ku	-676
▁komputer	-677
dapat	-678
▁sang	-679
upo	-680
uangan	-681
▁keb	-682
▁berk	-683
▁manj	-684
▁terl	-685
asia	-686
▁sed	-687
▁angg	-688
▁ilmu	-689
▁secara	-690
▁196	-691
▁lu	-692
▁baliau	-693
▁pendidikan	-694
▁pers	-695
▁malay	-696
19	-697
▁7	-698
▁a	-699
aga	-700
utan	-701
▁sac	-702
▁kl	-703
▁195	-704
▁panjang	-705
▁tel	-706
▁dat	-707
ew	-708
inggo	-709
▁sung	-710
▁masjid	-711
arn	-712
▁abd	-713
idang	-714
▁besar	-715
▁sul	-716
und	-717
▁masyarakat	-718
abat	-719
arano	-720
impin	-721
▁mand	-722
▁har	-723
▁pernah	-724
ilan	-725
▁dikenal	-726
▁jawa	-727
▁kak	-728
▁bawah	-729
▁progr	-730
▁babarap	-731
▁re	-732
▁kas	-733
▁medan	-734
▁sacaro	-735
▁e	-736
▁kamp	-737
esiden	-738
mas	-739
▁jakarta	-740
▁tekn	-741
anyo	-742
▁karano	-743
pr	-744
bit	-745
▁inf	-746
▁bahaso	-747
▁program	-748
eter	-749
iran	-750
▁babarapo	-751
20	-752
▁bin	-753
▁br	-754
onom	-755
▁tam	-756
▁mend	-757
per	-758
▁inter	-759
▁atas	-760
yah	-761
adisi	-762
ingan	-763
▁suatu	-764
adap	-765
▁din	-766
aus	-767
▁ah	-768
▁el	-769
ani	-770
▁9	-771
▁malaysia	-772
uti	-773
sis	-774
▁tur	-775
▁marupokan	-776
▁manc	-777
▁proses	-778
ei	-779
▁x	-780
uni	-781
▁berd	-782
▁hingga	-783
▁tradisi	-784
▁tak	-785
▁antara	-786
▁anggota	-787
▁bis	-788
▁jalan	-789
ungk	-790
hi	-791
▁sungai	-792
▁menc	-793
irikan	-794
▁kaw	-795
ura	-796
ando	-797
▁pamb	-798
▁riau	-799
▁makan	-800
ode	-801
uli	-802
▁li	-803
▁dua	-804
▁bidang	-805
▁presiden	-806
ci	-807
antai	-808
▁jumlah	-809
▁sekitar	-810
atak	-811
▁lim	-812
▁rep	-813
utu	-814
▁abdul	-815
▁belanda	-816
uari	-817
▁india	-818
▁tampek	-819
▁surang	-820
▁10	-821
▁arab	-822
agian	-823
▁ok	-824
ajar	-825
▁katiko	-826
▁masa	-827
▁dij	-828
▁12	-829
elum	-830
ihan	-831
▁hid	-832
anti	-833
ina	-834
0,	-835
le	-836
idae	-837
▁air	-838
▁duo	-839
▁muh	-840
▁tasabuik	-841
▁er	-842
unyo	-843
est	-844
teri	-845
uhan	-846
ublik	-847
▁sebelum	-848
ammad	-849
▁fam	-850
▁bukit	-851
alis	-852
▁peny	-853
▁eks	-854
▁13	-855
▁asia	-856
uduk	-857
5,	-858
▁ul	-859
▁dig	-860
ij	-861
air	-862
eks	-863
aupun	-864
▁bagi	-865
.3	-866
andi	-867
▁mangg	-868
▁sejak	-869
▁kawasan	-870
ingkat	-871
▁antaro	-872
▁karaj	-873
▁kelas	-874
ug	-875
aks	-876
▁inggr	-877
▁sabal	-878
ulis	-879
▁res	-880
▁pari	-881
▁tempat	-882
▁seh	-883
iti	-884
▁sah	-885
▁sarupo	-886
▁dia	-887
usan	-888
ompok	-889
▁maso	-890
▁serta	-891
do	-892
▁sajak	-893
tiv	-894
▁mes	-895
olong	-896
▁pamar	-897
erika	-898
▁selain	-899
ump	-900
▁mat	-901
▁mul	-902
▁diper	-903
aru	-904
ilah	-905
ea	-906
▁ir	-907
▁km	-908
▁kor	-909
▁desa	-910
▁bantu	-911
ago	-912
angah	-913
▁musi	-914
ro	-915
▁,	-916
opa	-917
▁ik	-918
▁ateh	-919
ki	-920
engk	-921
▁bap	-922
▁15	-923
▁dar	-924
▁berbagai	-925
▁17	-926
▁lainnya	-927
▁sikolah	-928
▁intern	-929
ajaan	-930
▁tat	-931
oid	-932
▁pop	-933
hasil	-934
▁lalu	-935
intahan	-936
▁menteri	-937
▁bola	-938
akai	-939
▁alam	-940
me	-941
▁politik	-942
▁maj	-943
amain	-944
▁pandidikan	-945
▁ins	-946
ormasi	-947
▁inggris	-948
4,	-949
ikasi	-950
▁disebut	-951
ensi	-952
istr	-953
▁tap	-954
imb	-955
asar	-956
mi	-957
▁terk	-958
▁budaya	-959
▁tengah	-960
▁terdapat	-961
tar	-962
▁kamudian	-963
lim	-964
ori	-965
▁mo	-966
▁mod	-967
▁kol	-968
▁famili	-969
▁amerika	-970
▁talatak	-971
▁republik	-972
▁ilmiah	-973
▁disabuik	-974
ukum	-975
aliang	-976
▁tetapi	-977
▁fak	-978
▁taj	-979
9,	-980
000	-981
han	-982
▁mad	-983
▁kari	-984
▁seni	-985
▁beras	-986
▁kerajaan	-987
indah	-988
entang	-989
▁trans	-990
▁pulo	-991
▁u	-992
▁af	-993
▁wal	-994
▁bersama	-995
▁saurang	-996
ec	-997
▁kr	-998
▁sudah	-999
anan	-1000
onomi	-1001
▁agus	-1002
ayaan	-1003
▁akhir	-1004
▁lainnyo	-1005
3,	-1006
7,	-1007
▁ba	-1008
apai	-1009
asis	-1010
▁digunakan	-1011
ail	-1012
erasi	-1013
inggal	-1014
teroid	-1015
▁asteroid	-1016
uda	-1017
▁pusat	-1018
▁tok	-1019
tinggi	-1020
alo	-1021
▁ibu	-1022
▁waktu	-1023
osi	-1024
uas	-1025
yat	-1026
▁ist	-1027
ons	-1028
emen	-1029
▁basamo	-1030
de	-1031
▁sap	-1032
▁eropa	-1033
arti	-1034
▁klub	-1035
▁koto	-1036
▁masyarakaik	-1037
ii	-1038
▁gen	-1039
.4	-1040
1,	-1041
tua	-1042
umi	-1043
ajik	-1044
▁gun	-1045
▁lok	-1046
▁bisa	-1047
▁juli	-1048
▁organ	-1049
▁melalui	-1050
2,	-1051
▁q	-1052
▁angk	-1053
▁salain	-1054
eda	-1055
▁and	-1056
▁kons	-1057
▁muhammad	-1058
▁laut	-1059
antuak	-1060
▁bung	-1061
▁hanya	-1062
▁nov	-1063
awi	-1064
▁terletak	-1065
▁pemerintah	-1066
art	-1067
anggap	-1068
▁manusia	-1069
8,	-1070
ubah	-1071
▁tag	-1072
uduak	-1073
▁hind	-1074
▁paliang	-1075
ard	-1076
▁gel	-1077
▁perk	-1078
▁cer	-1079
av	-1080
ej	-1081
▁dem	-1082
▁kul	-1083
▁wakatu	-1084
▁hukum	-1085
▁kayu	-1086
auan	-1087
▁samo	-1088
▁sosi	-1089
antang	-1090
isasi	-1091
ajaran	-1092
▁patamo	-1093
▁babagai	-1094
▁partai	-1095
uta	-1096
▁musim	-1097
fa	-1098
▁gr	-1099
▁kek	-1100
antan	-1101
▁film	-1102
▁sasudah	-1103
▁mamiliki	-1104
▁16	-1105
▁ob	-1106
atkan	-1107
▁kaum	-1108
agu	-1109
▁ditu	-1110
▁ketika	-1111
tak	-1112
▁lap	-1113
▁band	-1114
▁sing	-1115
▁tiga	-1116
▁salam	-1117
▁malalui	-1118
▁suk	-1119
▁gub	-1120
▁jur	-1121
entara	-1122
▁diter	-1123
omb	-1124
ort	-1125
enis	-1126
▁jan	-1127
▁mambuek	-1128
6,	-1129
▁op	-1130
▁rak	-1131
▁berg	-1132
▁berl	-1133
fi	-1134
asanya	-1135
ril	-1136
▁sman	-1137
▁tuan	-1138
▁0	-1139
▁im	-1140
ambi	-1141
▁str	-1142
▁melayu	-1143
ho	-1144
▁sk	-1145
itan	-1146
ingkek	-1147
▁dr	-1148
▁kur	-1149
▁raja	-1150
▁tigo	-1151
▁makanan	-1152
▁ger	-1153
▁lemb	-1154
▁agustus	-1155
▁sehingga	-1156
.5	-1157
tri	-1158
▁popul	-1159
▁penduduk	-1160
ku	-1161
aki	-1162
ont	-1163
▁pl	-1164
ikat	-1165
ilai	-1166
▁agama	-1167
▁lahir	-1168
▁kepada	-1169
sa	-1170
usus	-1171
din	-1172
▁baj	-1173
▁tapi	-1174
▁11	-1175
ester	-1176
▁sh	-1177
ambang	-1178
unc	-1179
atif	-1180
▁punyo	-1181
usahaan	-1182
▁paj	-1183
iter	-1184
▁sama	-1185
▁memper	-1186
▁no	-1187
artawan	-1188
▁gubern	-1189
▁bangs	-1190
▁dep	-1191
asuak	-1192
▁ekonomi	-1193
enc	-1194
▁te	-1195
▁tuj	-1196
▁kemb	-1197
▁mari	-1198
▁meter	-1199
▁didirikan	-1200
iek	-1201
titu	-1202
▁sol	-1203
▁berasal	-1204
▁pin	-1205
▁istilah	-1206
▁gubernur	-1207
▁informasi	-1208
eta	-1209
gara	-1210
▁pag	-1211
▁selama	-1212
▁tradisional	-1213
▁aia	-1214
ungsi	-1215
asonyo	-1216
▁biasanya	-1217
erd	-1218
uatan	-1219
.000	-1220
▁bern	-1221
▁pi	-1222
▁berm	-1223
abatan	-1224
ev	-1225
uka	-1226
▁pany	-1227
▁termas	-1228
▁dih	-1229
▁us	-1230
aian	-1231
uruh	-1232
▁mag	-1233
▁kedua	-1234
▁tokoh	-1235
▁dilakukan	-1236
▁berada	-1237
▁musajik	-1238
irian	-1239
uruan	-1240
▁desember	-1241
▁termasuk	-1242
▁wartawan	-1243
anjut	-1244
▁sosial	-1245
▁ph	-1246
▁fakul	-1247
▁pantai	-1248
▁en	-1249
ekaan	-1250
▁ditem	-1251
▁hinggo	-1252
▁membuat	-1253
▁teknologi	-1254
▁abad	-1255
▁kelu	-1256
▁sangat	-1257
▁adat	-1258
▁terp	-1259
ting	-1260
▁mis	-1261
▁perm	-1262
▁tamasuak	-1263
abi	-1264
▁mil	-1265
alami	-1266
▁aceh	-1267
▁jal	-1268
▁perd	-1269
ma	-1270
▁dianggap	-1271
angkek	-1272
gunakan	-1273
▁khusus	-1274
▁sadang	-1275
▁fakultas	-1276
▁ji	-1277
anyak	-1278
▁dasar	-1279
▁partamo	-1280
▁satalah	-1281
atur	-1282
aikan	-1283
tober	-1284
▁terd	-1285
angkat	-1286
▁bahan	-1287
alia	-1288
▁193	-1289
▁acok	-1290
▁the	-1291
▁bert	-1292
▁salamo	-1293
▁uk	-1294
arna	-1295
▁fil	-1296
▁diri	-1297
▁perg	-1298
▁mengh	-1299
▁bantuak	-1300
oc	-1301
▁ses	-1302
▁sub	-1303
▁buah	-1304
▁juni	-1305
▁14	-1306
▁baik	-1307
▁terg	-1308
anjung	-1309
▁komun	-1310
▁manur	-1311
▁dibangun	-1312
ektur	-1313
▁peri	-1314
ungkin	-1315
ao	-1316
gas	-1317
eral	-1318
▁lub	-1319
▁sil	-1320
▁sabalun	-1321
▁art	-1322
▁tadap	-1323
▁balando	-1324
▁oktober	-1325
war	-1326
▁ayah	-1327
▁hanyo	-1328
▁menur	-1329
▁kembali	-1330
etah	-1331
uksi	-1332
▁internasional	-1333
ebr	-1334
upan	-1335
▁ciek	-1336
▁kand	-1337
bitkan	-1338
▁sakitar	-1339
ell	-1340
▁yog	-1341
▁stat	-1342
alaman	-1343
▁mengg	-1344
▁biasonyo	-1345
▁panduduak	-1346
az	-1347
aud	-1348
ongk	-1349
▁rus	-1350
▁sis	-1351
apkan	-1352
arian	-1353
▁raya	-1354
pa	-1355
oni	-1356
unya	-1357
▁prof	-1358
▁maret	-1359
▁surau	-1360
▁utama	-1361
▁nom	-1362
.6	-1363
ond	-1364
▁seti	-1365
▁hasil	-1366
umbang	-1367
▁bukittinggi	-1368
▁badan	-1369
▁paling	-1370
itam	-1371
▁pangg	-1372
▁bentuk	-1373
▁maupun	-1374
▁minang	-1375
▁menggunakan	-1376
ayak	-1377
▁jam	-1378
▁jend	-1379
▁kegi	-1380
yakarta	-1381
▁gad	-1382
▁hamp	-1383
▁ketua	-1384
▁situs	-1385
aja	-1386
▁wis	-1387
ulauan	-1388
urahan	-1389
▁musik	-1390
▁sastr	-1391
▁taman	-1392
asarkan	-1393
▁sumber	-1394
▁ge	-1395
▁ii	-1396
▁191	-1397
▁yak	-1398
▁tentang	-1399
▁yogyakarta	-1400
▁kaduo	-1401
▁mandap	-1402
▁periode	-1403
▁kegiatan	-1404
aksi	-1405
asti	-1406
▁cin	-1407
▁dic	-1408
▁2006	-1409
▁sawah	-1410
▁karajaan	-1411
▁et	-1412
atat	-1413
embang	-1414
endiri	-1415
▁kecil	-1416
▁sultan	-1417
▁menjabat	-1418
jek	-1419
▁sept	-1420
antaro	-1421
asikan	-1422
▁tadapek	-1423
nis	-1424
▁manch	-1425
▁kapado	-1426
▁manchester	-1427
▁id	-1428
▁bek	-1429
▁cuk	-1430
▁berp	-1431
▁ditam	-1432
udayaan	-1433
▁nagara	-1434
▁padusi	-1435
▁bernama	-1436
▁prod	-1437
▁wakil	-1438
▁pemerintahan	-1439
▁25	-1440
▁up	-1441
▁192	-1442
▁con	-1443
▁sin	-1444
▁rakyat	-1445
aku	-1446
upa	-1447
entr	-1448
▁juta	-1449
▁sisi	-1450
▁jabatan	-1451
▁september	-1452
ilih	-1453
▁sir	-1454
angga	-1455
▁tangah	-1456
▁tenggara	-1457
▁keh	-1458
▁stu	-1459
▁terh	-1460
▁januari	-1461
▁of	-1462
atua	-1463
▁ben	-1464
▁ketek	-1465
▁sedangkan	-1466
ais	-1467
ektr	-1468
▁gol	-1469
▁perj	-1470
▁aktiv	-1471
▁majalah	-1472
onj	-1473
▁ay	-1474
▁iy	-1475
▁institu	-1476
▁sahinggo	-1477
▁organisasi	-1478
▁november	-1479
rah	-1480
uih	-1481
▁pes	-1482
▁banamo	-1483
▁tv	-1484
iang	-1485
isme	-1486
idupan	-1487
▁utamo	-1488
▁bahkan	-1489
co	-1490
▁lai	-1491
unyoi	-1492
▁2001	-1493
▁kepala	-1494
▁manuruik	-1495
▁ro	-1496
▁sip	-1497
▁2010	-1498
▁yakni	-1499
▁iyolah	-1500
▁sering	-1501
▁kelurahan	-1502
ig	-1503
▁mu	-1504
▁sup	-1505
atang	-1506
uikan	-1507
▁asal	-1508
▁luar	-1509
▁law	-1510
▁mareka	-1511
▁muslim	-1512
▁bur	-1513
▁kun	-1514
ahkan	-1515
apura	-1516
▁30	-1517
isan	-1518
▁cok	-1519
abung	-1520
aknyo	-1521
▁liga	-1522
▁ruang	-1523
impinan	-1524
ry	-1525
▁indus	-1526
▁lingk	-1527
▁sementara	-1528
iz	-1529
▁mon	-1530
▁pasi	-1531
adikan	-1532
▁agamo	-1533
▁datar	-1534
▁seluruh	-1535
▁mampunyoi	-1536
egi	-1537
▁alb	-1538
▁met	-1539
▁lagi	-1540
empuan	-1541
▁jenis	-1542
ebruari	-1543
sit	-1544
▁he	-1545
atuan	-1546
uakan	-1547
▁bumi	-1548
istrik	-1549
▁istan	-1550
▁pengh	-1551
▁teknik	-1552
embangan	-1553
our	-1554
▁guru	-1555
▁karier	-1556
▁listrik	-1557
10	-1558
sir	-1559
▁elektr	-1560
uman	-1561
utus	-1562
▁rat	-1563
austr	-1564
▁tumb	-1565
▁industri	-1566
▁hak	-1567
▁mungkin	-1568
▁sekarang	-1569
ine	-1570
▁her	-1571
▁tad	-1572
▁berj	-1573
▁setiap	-1574
▁menurut	-1575
▁fr	-1576
▁austr	-1577
jo	-1578
adem	-1579
ikah	-1580
▁harus	-1581
▁dipakai	-1582
▁manggun	-1583
▁sendiri	-1584
▁mendapat	-1585
▁kan	-1586
▁ulama	-1587
▁pamain	-1588
▁sebagian	-1589
▁sebelumnya	-1590
ha	-1591
▁non	-1592
▁rek	-1593
▁jiwa	-1594
atakan	-1595
▁ampek	-1596
▁langs	-1597
▁pemain	-1598
▁gar	-1599
araan	-1600
▁diak	-1601
▁zaman	-1602
▁perguruan	-1603
rika	-1604
▁jep	-1605
▁und	-1606
▁perb	-1607
▁digunoan	-1608
▁kac	-1609
akhir	-1610
ukkan	-1611
▁objek	-1612
▁studi	-1613
.7	-1614
fer	-1615
har	-1616
ima	-1617
▁cit	-1618
asiun	-1619
▁gelar	-1620
▁hidup	-1621
▁nomor	-1622
▁baliak	-1623
ambangan	-1624
▁perempuan	-1625
▁diterbitkan	-1626
min	-1627
ohon	-1628
umbu	-1629
▁mur	-1630
ikuti	-1631
▁ahmad	-1632
aji	-1633
▁em	-1634
▁sw	-1635
▁daf	-1636
engah	-1637
▁asli	-1638
▁sepak	-1639
▁afrika	-1640
yp	-1641
▁lin	-1642
▁luas	-1643
ubungan	-1644
▁masuak	-1645
▁tajadi	-1646
▁samantaro	-1647
aba	-1648
▁mei	-1649
▁paus	-1650
▁dikan	-1651
▁piala	-1652
▁serikat	-1653
▁februari	-1654
11	-1655
▁api	-1656
▁penj	-1657
▁tergolong	-1658
aruh	-1659
▁diad	-1660
▁soek	-1661
enteng	-1662
▁jepang	-1663
▁kampar	-1664
▁'	-1665
cak	-1666
▁mud	-1667
istik	-1668
▁munc	-1669
intang	-1670
▁masuk	-1671
▁daftar	-1672
▁dangan	-1673
▁lauik	-1674
▁terdiri	-1675
ela	-1676
orong	-1677
▁melakukan	-1678
auh	-1679
▁sri	-1680
▁kata	-1681
▁lima	-1682
▁sati	-1683
▁kontr	-1684
▁karang	-1685
▁sabagian	-1686
▁pu	-1687
▁buku	-1688
▁rajo	-1689
alanan	-1690
▁kelompok	-1691
aka	-1692
enda	-1693
▁del	-1694
agiah	-1695
uddin	-1696
asiswa	-1697
▁april	-1698
▁operasi	-1699
▁sejarah	-1700
▁stasiun	-1701
▁meninggal	-1702
eo	-1703
ami	-1704
▁it	-1705
ungg	-1706
araja	-1707
▁ditab	-1708
▁tanpa	-1709
▁hindia	-1710
▁tanjung	-1711
pl	-1712
uai	-1713
▁ed	-1714
▁es	-1715
▁ur	-1716
osisi	-1717
▁barasa	-1718
erdekaan	-1719
ef	-1720
na	-1721
ihat	-1722
▁2014	-1723
▁data	-1724
▁dewan	-1725
▁misal	-1726
▁semua	-1727
▁umumnya	-1728
uahan	-1729
▁lagu	-1730
▁tari	-1731
aranya	-1732
mo	-1733
ahun	-1734
▁tub	-1735
▁kato	-1736
▁pener	-1737
▁singapura	-1738
kip	-1739
▁pt	-1740
angka	-1741
▁ahli	-1742
▁lahia	-1743
▁kudian	-1744
▁soekarn	-1745
▁mac	-1746
ancis	-1747
▁kaki	-1748
▁adaik	-1749
▁antar	-1750
▁empat	-1751
▁sempat	-1752
wak	-1753
ihak	-1754
▁bir	-1755
▁wan	-1756
▁madr	-1757
▁barado	-1758
▁kapalo	-1759
▁lokasi	-1760
7.	-1761
gen	-1762
hia	-1763
eksi	-1764
iman	-1765
kipun	-1766
▁khas	-1767
abuang	-1768
▁dimulai	-1769
▁pasukan	-1770
nam	-1771
▁dj	-1772
▁pap	-1773
▁rah	-1774
▁smp	-1775
antau	-1776
▁ikan	-1777
▁militer	-1778
yai	-1779
alig	-1780
▁pet	-1781
▁pis	-1782
▁pras	-1783
erikan	-1784
▁hewan	-1785
▁kebudayaan	-1786
▁az	-1787
engg	-1788
akuan	-1789
amanya	-1790
▁acara	-1791
▁aktif	-1792
▁nilai	-1793
▁perang	-1794
▁tantang	-1795
yc	-1796
uko	-1797
▁fi	-1798
▁il	-1799
▁ali	-1800
▁sim	-1801
▁akib	-1802
▁alat	-1803
▁daun	-1804
andang	-1805
▁karya	-1806
▁pekan	-1807
▁akadem	-1808
ept	-1809
elat	-1810
▁surat	-1811
▁dikana	-1812
▁sastra	-1813
▁keluarga	-1814
.12	-1815
ajah	-1816
alas	-1817
▁sag	-1818
▁olah	-1819
▁maria	-1820
▁sebesar	-1821
▁pariaman	-1822
▁walaupun	-1823
fat	-1824
▁ras	-1825
▁sun	-1826
▁kant	-1827
▁abaik	-1828
▁benteng	-1829
▁terhadap	-1830
.8	-1831
▁uj	-1832
apek	-1833
arih	-1834
ikut	-1835
▁lua	-1836
▁red	-1837
ultan	-1838
▁panj	-1839
▁samb	-1840
▁tetap	-1841
▁terjadi	-1842
▁berhasil	-1843
▁ps	-1844
amin	-1845
ulus	-1846
▁dif	-1847
▁baso	-1848
antikan	-1849
▁pisang	-1850
ulih	-1851
▁der	-1852
▁tep	-1853
▁van	-1854
usaha	-1855
▁tamp	-1856
▁budayo	-1857
▁kepulauan	-1858
da	-1859
aih	-1860
▁mut	-1861
▁pusek	-1862
▁resmi	-1863
▁satiok	-1864
▁tuanku	-1865
▁cokelat	-1866
▁ditemukan	-1867
▁sadangkan	-1868
lis	-1869
ateh	-1870
udul	-1871
▁koloni	-1872
▁mempun	-1873
▁perusahaan	-1874
agar	-1875
▁bund	-1876
▁cher	-1877
▁jadi	-1878
▁lama	-1879
uiknyo	-1880
▁tujuan	-1881
▁umumnyo	-1882
▁dak	-1883
▁fis	-1884
uktur	-1885
asiang	-1886
anyakan	-1887
▁tingkat	-1888
▁kemerdekaan	-1889
▁mi	-1890
abkan	-1891
itian	-1892
▁arsit	-1893
▁pindah	-1894
andingan	-1895
▁kumbang	-1896
▁lembaga	-1897
▁abdullah	-1898
ow	-1899
ert	-1900
ingi	-1901
isah	-1902
ogra	-1903
▁nas	-1904
▁bani	-1905
▁27	-1906
▁ud	-1907
▁yo	-1908
▁ram	-1909
▁uni	-1910
aksan	-1911
iliah	-1912
▁candi	-1913
▁gunung	-1914
eja	-1915
ora	-1916
rat	-1917
son	-1918
adian	-1919
isten	-1920
▁agam	-1921
agangan	-1922
▁tadiri	-1923
eum	-1924
kah	-1925
aiak	-1926
ujan	-1927
agang	-1928
eknik	-1929
▁gala	-1930
▁oksi	-1931
▁simp	-1932
▁kabin	-1933
▁malam	-1934
▁solok	-1935
▁bangsa	-1936
▁modern	-1937
ess	-1938
unus	-1939
▁190	-1940
▁lak	-1941
▁2011	-1942
▁danau	-1943
▁media	-1944
▁pihak	-1945
▁pohon	-1946
▁tiang	-1947
▁sebelah	-1948
pi	-1949
re	-1950
▁22	-1951
elle	-1952
▁dok	-1953
▁2013	-1954
▁tand	-1955
▁mampu	-1956
▁mempunyai	-1957
▁23	-1958
ayan	-1959
unto	-1960
ainan	-1961
▁pembangunan	-1962
▁26	-1963
▁ni	-1964
abaik	-1965
▁caro	-1966
argaan	-1967
▁balai	-1968
▁ditabik	-1969
▁terbesar	-1970
ual	-1971
▁21	-1972
agam	-1973
▁kim	-1974
uruah	-1975
▁turki	-1976
▁kabinet	-1977
▁penting	-1978
▁hi	-1979
baru	-1980
▁had	-1981
▁jar	-1982
▁lat	-1983
▁hujan	-1984
▁langk	-1985
▁abu	-1986
▁bil	-1987
▁tac	-1988
ambah	-1989
ayang	-1990
inasi	-1991
lunto	-1992
▁samud	-1993
▁fungsi	-1994
200	-1995
toh	-1996
▁mana	-1997
▁terc	-1998
antara	-1999
▁warga	-2000
▁terkenal	-2001
▁2009	-2002
▁wali	-2003
▁contoh	-2004
▁sawahlunto	-2005
▁berdasarkan	-2006
▁24	-2007
land	-2008
▁hil	-2009
▁ped	-2010
▁tem	-2011
▁pekanbaru	-2012
ka	-2013
men	-2014
ool	-2015
ebar	-2016
▁lamo	-2017
▁mart	-2018
▁bukan	-2019
▁institut	-2020
uc	-2021
iak	-2022
▁dah	-2023
▁den	-2024
aluak	-2025
▁2015	-2026
▁bengk	-2027
ty	-2028
ulo	-2029
▁bul	-2030
▁cab	-2031
▁pac	-2032
alaba	-2033
aligus	-2034
▁hutan	-2035
▁kurang	-2036
▁oksigen	-2037
▁mahasiswa	-2038
ekh	-2039
▁gal	-2040
▁kin	-2041
▁seg	-2042
▁ordo	-2043
▁syekh	-2044
▁bamain	-2045
▁maningga	-2046
▁bo	-2047
▁kaj	-2048
itasi	-2049
▁nabi	-2050
▁hitam	-2051
▁mener	-2052
asilitas	-2053
hasilkan	-2054
▁bermain	-2055
▁soekarno	-2056
▁gl	-2057
▁moh	-2058
adaan	-2059
atian	-2060
▁2004	-2061
▁berh	-2062
▁kompl	-2063
▁berarti	-2064
▁berikut	-2065
ast	-2066
eae	-2067
angi	-2068
erja	-2069
apang	-2070
ikian	-2071
ultanan	-2072
▁tingkek	-2073
▁elektron	-2074
▁pamarent	-2075
lu	-2076
▁cl	-2077
eran	-2078
arajo	-2079
▁minyak	-2080
sur	-2081
ula	-2082
▁sai	-2083
▁sij	-2084
askan	-2085
▁haji	-2086
ubahan	-2087
▁wanita	-2088
▁jurusan	-2089
▁fasilitas	-2090
anyi	-2091
▁baw	-2092
▁kub	-2093
▁sad	-2094
▁sus	-2095
iakan	-2096
▁biasa	-2097
▁pintu	-2098
▁batang	-2099
▁profesi	-2100
▁akhirnya	-2101
▁labalaba	-2102
▁saluruah	-2103
.0	-2104
udi	-2105
▁cara	-2106
▁album	-2107
▁putri	-2108
▁kuliah	-2109
▁masalah	-2110
▁sabalum	-2111
50	-2112
itik	-2113
▁arah	-2114
▁biru	-2115
▁mali	-2116
ainkan	-2117
▁terut	-2118
▁cherry	-2119
▁diakses	-2120
▁prancis	-2121
▁menengah	-2122
▁meskipun	-2123
.9	-2124
mb	-2125
one	-2126
▁unit	-2127
estasi	-2128
▁lakil	-2129
▁pemil	-2130
▁tulis	-2131
▁belajar	-2132
▁terakhir	-2133
▁aktivitas	-2134
▁politeknik	-2135
ikul	-2136
▁alq	-2137
▁gor	-2138
▁jer	-2139
▁kej	-2140
▁tuo	-2141
unjung	-2142
▁lawah	-2143
▁wisata	-2144
adah	-2145
▁kah	-2146
▁kit	-2147
▁nur	-2148
▁2016	-2149
▁nasi	-2150
▁prib	-2151
▁orbit	-2152
▁sakit	-2153
eptunus	-2154
▁dibuek	-2155
▁posisi	-2156
▁bandung	-2157
▁kalompok	-2158
14	-2159
adio	-2160
▁dpr	-2161
ulang	-2162
uasaan	-2163
▁irwan	-2164
▁kabar	-2165
▁penel	-2166
▁menunj	-2167
▁tangan	-2168
▁tanaman	-2169
▁prasasti	-2170
▁australia	-2171
2.	-2172
yphi	-2173
▁ham	-2174
ambyc	-2175
▁ingg	-2176
ampuan	-2177
▁lubuk	-2178
▁stadi	-2179
artemen	-2180
▁transn	-2181
yphiidae	-2182
ambycidae	-2183
▁lakilaki	-2184
▁pimpinan	-2185
▁populasi	-2186
▁pamarintah	-2187
▁linyphiidae	-2188
▁cerambycidae	-2189
▁transneptunus	-2190
inj	-2191
▁le	-2192
erta	-2193
usun	-2194
▁bia	-2195
▁kond	-2196
itania	-2197
▁status	-2198
▁sabalah	-2199
▁terutama	-2200
▁bergabung	-2201
mp	-2202
▁.	-2203
▁int	-2204
ingin	-2205
ulkan	-2206
▁bank	-2207
▁city	-2208
▁kuno	-2209
▁pemimpin	-2210
uri	-2211
▁189	-2212
▁nus	-2213
▁pah	-2214
▁saja	-2215
fikasi	-2216
▁laweh	-2217
▁surek	-2218
arajoan	-2219
▁datang	-2220
▁arsitektur	-2221
edia	-2222
▁lun	-2223
▁daya	-2224
▁limo	-2225
▁maka	-2226
▁tamb	-2227
▁semen	-2228
▁difusi	-2229
▁harian	-2230
▁parang	-2231
▁puncak	-2232
aq	-2233
nal	-2234
ono	-2235
▁ot	-2236
arif	-2237
etik	-2238
▁ged	-2239
▁pab	-2240
▁php	-2241
onjol	-2242
▁mudo	-2243
▁pula	-2244
▁siti	-2245
isitas	-2246
etahuan	-2247
ko	-2248
ade	-2249
akar	-2250
irih	-2251
egara	-2252
▁dind	-2253
▁jambi	-2254
▁putra	-2255
▁surah	-2256
▁museum	-2257
inggalan	-2258
▁britania	-2259
▁mengalami	-2260
8.	-2261
ein	-2262
fik	-2263
ehan	-2264
yang	-2265
▁rel	-2266
▁kalu	-2267
▁mutl	-2268
ayanan	-2269
▁olahr	-2270
anjutkan	-2271
▁jenderal	-2272
15	-2273
ator	-2274
nitu	-2275
tari	-2276
▁kil	-2277
▁vir	-2278
nitudo	-2279
utusan	-2280
▁merah	-2281
▁manunj	-2282
▁eksentr	-2283
▁angkatan	-2284
▁jaringan	-2285
▁kehidupan	-2286
▁magnitudo	-2287
▁mendirikan	-2288
▁leg	-2289
upati	-2290
▁2002	-2291
▁mato	-2292
▁bukik	-2293
▁malik	-2294
▁japang	-2295
tuj	-2296
uju	-2297
irim	-2298
ital	-2299
▁aran	-2300
▁kagi	-2301
urunan	-2302
▁kalim	-2303
▁pasar	-2304
▁pertan	-2305
▁populer	-2306
▁mencapai	-2307
▁eksentrisitas	-2308
ji	-2309
afat	-2310
akir	-2311
ayat	-2312
umen	-2313
▁datu	-2314
▁terj	-2315
etapkan	-2316
ministr	-2317
▁bupati	-2318
▁mantan	-2319
▁sangaik	-2320
▁olahraga	-2321
▁pasangan	-2322
gu	-2323
no	-2324
ass	-2325
▁gu	-2326
▁ol	-2327
▁100	-2328
▁joh	-2329
aknya	-2330
arito	-2331
belle	-2332
ongho	-2333
▁muda	-2334
▁usia	-2335
▁sipak	-2336
▁dibuat	-2337
▁araneae	-2338
▁terbaik	-2339
▁surakarta	-2340
▁cherrybelle	-2341
uf	-2342
wi	-2343
▁28	-2344
▁po	-2345
▁sl	-2346
atah	-2347
▁grup	-2348
▁kiri	-2349
ailand	-2350
▁kotak	-2351
▁siswa	-2352
▁hampir	-2353
▁bagabuang	-2354
ogr	-2355
▁rom	-2356
▁2000	-2357
▁lang	-2358
antian	-2359
onghoa	-2360
ongkok	-2361
▁barik	-2362
▁cagar	-2363
▁katua	-2364
▁payak	-2365
▁kampus	-2366
▁kompleks	-2367
red	-2368
▁ef	-2369
untu	-2370
▁ang	-2371
▁new	-2372
▁disi	-2373
atokan	-2374
likasi	-2375
▁biaso	-2376
▁muncul	-2377
▁stadion	-2378
▁dimiliki	-2379
▁inggirih	-2380
▁kagiatan	-2381
▁mandapek	-2382
▁payakumb	-2383
▁thailand	-2384
▁administr	-2385
12	-2386
jah	-2387
rip	-2388
dang	-2389
esir	-2390
jana	-2391
▁pej	-2392
akang	-2393
▁2005	-2394
▁pesi	-2395
▁darip	-2396
▁diant	-2397
▁paran	-2398
▁dipimpin	-2399
st	-2400
kom	-2401
▁tau	-2402
▁ayam	-2403
▁camp	-2404
▁diman	-2405
▁kemen	-2406
▁warna	-2407
▁mengen	-2408
▁kolonial	-2409
▁tionghoa	-2410
▁lingkungan	-2411
▁pengetahuan	-2412
apa	-2413
sus	-2414
hana	-2415
▁bam	-2416
ambil	-2417
rahim	-2418
arisan	-2419
atasan	-2420
▁rusia	-2421
▁tubuh	-2422
ebabkan	-2423
▁kristen	-2424
▁hubungan	-2425
▁manangah	-2426
▁pamimpin	-2427
▁tiongkok	-2428
vi	-2429
ait	-2430
▁go	-2431
abel	-2432
akin	-2433
atih	-2434
▁pos	-2435
ukaan	-2436
alisme	-2437
▁makam	-2438
▁29	-2439
obil	-2440
▁agar	-2441
▁kuala	-2442
▁baraja	-2443
▁lantai	-2444
▁tanamo	-2445
▁ukuran	-2446
▁berbeda	-2447
▁ibrahim	-2448
▁struktur	-2449
ord	-2450
uss	-2451
▁hij	-2452
▁pil	-2453
▁san	-2454
▁2003	-2455
▁bara	-2456
▁jika	-2457
▁keti	-2458
▁sajo	-2459
▁lokal	-2460
▁gedung	-2461
▁berdiri	-2462
ca	-2463
▁ny	-2464
tiwa	-2465
▁cal	-2466
▁kir	-2467
▁pur	-2468
acara	-2469
irkan	-2470
▁kamb	-2471
adilan	-2472
▁kerja	-2473
▁sutan	-2474
▁diperk	-2475
▁gerakan	-2476
▁demikian	-2477
▁mancapai	-2478
▁pertandingan	-2479
la	-2480
zi	-2481
ach	-2482
ona	-2483
annya	-2484
▁2012	-2485
▁kode	-2486
arakan	-2487
▁tugas	-2488
▁datuak	-2489
▁jerman	-2490
▁pertanian	-2491
▁penghargaan	-2492
vol	-2493
▁nat	-2494
▁xii	-2495
namen	-2496
▁tvri	-2497
▁datuk	-2498
▁mesir	-2499
▁departemen	-2500
▁elektronik	-2501
▁payakumbuh	-2502
▁pamarintahan	-2503
erj	-2504
awat	-2505
▁cat	-2506
▁ten	-2507
▁yay	-2508
▁motif	-2509
▁malayu	-2510
▁minuman	-2511
▁yayasan	-2512
13	-2513
ey	-2514
adok	-2515
atar	-2516
▁amb	-2517
▁lar	-2518
erang	-2519
ukung	-2520
▁2008	-2521
▁tour	-2522
▁singk	-2523
▁surab	-2524
▁kantor	-2525
▁tatapi	-2526
▁mantari	-2527
▁sabalunnyo	-2528
25	-2529
aban	-2530
awesi	-2531
▁kong	-2532
▁penc	-2533
etahui	-2534
udukan	-2535
▁mangk	-2536
▁menikah	-2537
▁pesisir	-2538
▁sabanyak	-2539
▁sulawesi	-2540
▁tercatat	-2541
▁berkembang	-2542
▁mendapatkan	-2543
▁profesional	-2544
amm	-2545
oba	-2546
▁ta	-2547
▁hat	-2548
▁say	-2549
awali	-2550
▁cukup	-2551
▁genus	-2552
▁jalur	-2553
▁maman	-2554
▁sabah	-2555
▁turun	-2556
alankan	-2557
turunan	-2558
▁madrid	-2559
▁materi	-2560
▁penggun	-2561
▁surabaya	-2562
▁membentuk	-2563
aria	-2564
▁pek	-2565
▁2007	-2566
▁zain	-2567
ajahan	-2568
ingkan	-2569
▁menulis	-2570
▁samudra	-2571
angundang	-2572
uki	-2573
▁co	-2574
aruy	-2575
ajang	-2576
▁adam	-2577
alahan	-2578
ilidae	-2579
volusi	-2580
▁tarut	-2581
▁tangga	-2582
▁telkom	-2583
▁bekerja	-2584
▁pagaruy	-2585
▁babantuak	-2586
▁berbentuk	-2587
of	-2588
yan	-2589
abalu	-2590
ajari	-2591
aliak	-2592
ayoan	-2593
▁hati	-2594
▁mesin	-2595
antiang	-2596
ational	-2597
▁karajo	-2598
▁masing	-2599
▁perdana	-2600
andiangan	-2601
▁didirian	-2602
▁mengajar	-2603
▁melanjutkan	-2604
ambu	-2605
egal	-2606
▁tib	-2607
ation	-2608
urkan	-2609
▁atap	-2610
▁bantuan	-2611
embangkan	-2612
▁asilidae	-2613
▁pelajaran	-2614
▁komunikasi	-2615
▁memberikan	-2616
▁perkembangan	-2617
ck	-2618
res	-2619
abak	-2620
arik	-2621
▁asa	-2622
▁isi	-2623
▁rib	-2624
▁yah	-2625
evisi	-2626
▁atok	-2627
▁pasa	-2628
▁seri	-2629
▁biaya	-2630
▁putih	-2631
▁terbuat	-2632
▁langsung	-2633
▁manjabat	-2634
▁undangundang	-2635
1.	-2636
ron	-2637
▁gi	-2638
▁sd	-2639
▁oto	-2640
▁rad	-2641
arimo	-2642
▁umua	-2643
masing	-2644
▁bungo	-2645
▁fisik	-2646
▁model	-2647
ampilan	-2648
▁jorong	-2649
▁gunuang	-2650
▁penulis	-2651
▁manggunoan	-2652
▁masingmasing	-2653
erl	-2654
orn	-2655
abil	-2656
▁bay	-2657
▁dom	-2658
▁fes	-2659
▁sch	-2660
antik	-2661
anyol	-2662
enian	-2663
▁temp	-2664
▁umur	-2665
entasi	-2666
▁bangk	-2667
▁seder	-2668
▁cukuik	-2669
▁istana	-2670
▁tingga	-2671
▁masakan	-2672
▁sakolah	-2673
▁direktur	-2674
▁kinabalu	-2675
▁terpilih	-2676
▁keturunan	-2677
▁parusahaan	-2678
ny	-2679
▁bau	-2680
▁bus	-2681
▁ide	-2682
▁lip	-2683
▁dakek	-2684
▁dekat	-2685
▁tarak	-2686
▁tabuek	-2687
anjuikan	-2688
▁awalnya	-2689
▁panggun	-2690
▁tinggal	-2691
gh	-2692
199	-2693
ens	-2694
apat	-2695
araf	-2696
egor	-2697
inta	-2698
aruah	-2699
tival	-2700
▁kaba	-2701
▁karb	-2702
▁kati	-2703
▁memp	-2704
▁saud	-2705
▁tert	-2706
▁demok	-2707
▁juara	-2708
▁akibat	-2709
▁berupa	-2710
▁cabang	-2711
▁ayahnya	-2712
▁festival	-2713
▁sejumlah	-2714
akl	-2715
nan	-2716
ton	-2717
▁tj	-2718
asak	-2719
tual	-2720
▁bac	-2721
▁bet	-2722
▁fin	-2723
▁semb	-2724
ambiak	-2725
ikulum	-2726
▁mangan	-2727
▁bengkulu	-2728
▁martabak	-2729
▁perangkat	-2730
ran	-2731
ret	-2732
zin	-2733
auah	-2734
inih	-2735
▁teh	-2736
edaan	-2737
▁basi	-2738
▁dulu	-2739
▁teluk	-2740
▁halaman	-2741
▁spanyol	-2742
▁selanjut	-2743
ال	-2744
oto	-2745
▁me	-2746
okok	-2747
rogr	-2748
utuh	-2749
▁rao	-2750
alani	-2751
▁gamb	-2752
▁jauh	-2753
▁mako	-2754
ehatan	-2755
▁baiak	-2756
▁keber	-2757
▁memen	-2758
▁bonjol	-2759
▁andalas	-2760
▁bakarajo	-2761
▁digunokan	-2762
▁kurikulum	-2763
th	-2764
ban	-2765
its	-2766
itu	-2767
nas	-2768
atas	-2769
ergi	-2770
▁pid	-2771
amkan	-2772
▁budd	-2773
▁cend	-2774
▁imam	-2775
▁tata	-2776
ungkan	-2777
▁dikel	-2778
▁papua	-2779
▁puluh	-2780
▁dahulu	-2781
▁televisi	-2782
▁bakambang	-2783
▁mangalami	-2784
▁mengikuti	-2785
▁persatuan	-2786
▁pambangunan	-2787
▁selanjutnya	-2788
..	-2789
pp	-2790
esm	-2791
▁50	-2792
alat	-2793
iyah	-2794
▁gag	-2795
▁log	-2796
▁1980	-2797
▁lamp	-2798
▁bersi	-2799
▁etnis	-2800
▁inggo	-2801
▁iolah	-2802
▁mobil	-2803
▁ketiga	-2804
▁produk	-2805
▁sedang	-2806
▁ditemui	-2807
▁sagadang	-2808
▁sajumlah	-2809
▁antaranya	-2810
▁kesultanan	-2811
ie	-2812
so	-2813
ino	-2814
rad	-2815
via	-2816
▁lo	-2817
alek	-2818
▁suh	-2819
ianyo	-2820
ullah	-2821
▁1945	-2822
▁kont	-2823
indahan	-2824
▁hiduik	-2825
▁jurnal	-2826
▁kondisi	-2827
▁malawan	-2828
▁tagadang	-2829
▁katurunan	-2830
45	-2831
eik	-2832
▁pk	-2833
etek	-2834
▁por	-2835
▁parl	-2836
▁perak	-2837
▁qatar	-2838
▁rangk	-2839
▁kereta	-2840
anjuiknyo	-2841
▁mengenai	-2842
▁diketahui	-2843
▁menyatakan	-2844
▁pamarentah	-2845
16	-2846
aca	-2847
▁cm	-2848
rasi	-2849
uaso	-2850
▁alm	-2851
▁tun	-2852
▁mano	-2853
aturan	-2854
truksi	-2855
▁distr	-2856
▁garis	-2857
▁hindu	-2858
▁kimia	-2859
▁anakan	-2860
▁ibadah	-2861
▁bintang	-2862
bar	-2863
yor	-2864
▁40	-2865
olak	-2866
omun	-2867
▁amp	-2868
▁tua	-2869
aitan	-2870
▁1999	-2871
▁sado	-2872
▁cinta	-2873
▁radio	-2874
▁jendela	-2875
▁layanan	-2876
▁sijarah	-2877
▁perjalanan	-2878
aok	-2879
rik	-2880
▁bl	-2881
ikit	-2882
lain	-2883
uskan	-2884
▁perh	-2885
andung	-2886
iliang	-2887
▁darah	-2888
▁kitab	-2889
▁meraih	-2890
▁mohammad	-2891
▁sebanyak	-2892
▁sepanjang	-2893
▁mandapekan	-2894
nik	-2895
yek	-2896
▁atl	-2897
▁cap	-2898
▁div	-2899
▁roh	-2900
lawan	-2901
▁jawi	-2902
▁mata	-2903
▁panc	-2904
▁prot	-2905
▁umar	-2906
anjian	-2907
irakan	-2908
ukuang	-2909
▁koran	-2910
▁rusli	-2911
▁paranc	-2912
▁putiah	-2913
ubuangan	-2914
▁diagiah	-2915
▁melawan	-2916
▁redaksi	-2917
▁aplikasi	-2918
▁mambantuak	-2919
▁penelitian	-2920
oman	-2921
▁mun	-2922
▁sud	-2923
alang	-2924
empuh	-2925
ipina	-2926
ormal	-2927
▁kain	-2928
angkar	-2929
▁2010,	-2930
▁belum	-2931
▁mudah	-2932
▁novel	-2933
amainan	-2934
▁adanya	-2935
▁menara	-2936
▁bambang	-2937
▁dinasti	-2938
▁sedikit	-2939
▁tentara	-2940
▁ditamukan	-2941
▁sederhana	-2942
▁sekaligus	-2943
80	-2944
eal	-2945
gia	-2946
audi	-2947
epat	-2948
umsi	-2949
▁iii	-2950
▁peg	-2951
yawan	-2952
▁kuil	-2953
ahanan	-2954
▁gadis	-2955
▁saran	-2956
▁barang	-2957
▁yahudi	-2958
reditasi	-2959
▁ditamui	-2960
▁maagiah	-2961
▁penyanyi	-2962
▁setempat	-2963
▁komunitas	-2964
▁ditetapkan	-2965
▁kebanyakan	-2966
io	-2967
arat	-2968
awak	-2969
▁dam	-2970
▁ken	-2971
▁tot	-2972
▁1970	-2973
▁dipl	-2974
▁naik	-2975
▁perp	-2976
▁ranc	-2977
▁real	-2978
▁rend	-2979
amonyo	-2980
ikiran	-2981
ukuran	-2982
▁gulai	-2983
▁jarak	-2984
▁selat	-2985
▁versi	-2986
▁barupo	-2987
▁bisnis	-2988
▁menyel	-2989
▁ataupun	-2990
▁kampung	-2991
▁pertamo	-2992
▁keuangan	-2993
▁menyebut	-2994
▁dijadikan	-2995
▁kalimantan	-2996
.,	-2997
ly	-2998
po	-2999
ase	-3000
bah	-3001
lih	-3002
rib	-3003
tik	-3004
ania	-3005
asah	-3006
omat	-3007
▁ari	-3008
▁gam	-3009
▁kut	-3010
▁lel	-3011
▁luk	-3012
▁mili	-3013
asitas	-3014
▁akhia	-3015
▁paris	-3016
▁virus	-3017
▁diberi	-3018
▁komisi	-3019
▁pribadi	-3020
▁tacatat	-3021
omunikasi	-3022
▁filipina	-3023
▁misalnyo	-3024
▁pantiang	-3025
▁semarang	-3026
▁palembang	-3027
▁penggunaan	-3028
▁salanjuiknyo	-3029
,2	-3030
aco	-3031
rod	-3032
▁be	-3033
▁ne	-3034
awai	-3035
yaik	-3036
▁jaw	-3037
▁mai	-3038
▁pit	-3039
▁web	-3040
amaan	-3041
▁banj	-3042
▁hulu	-3043
▁inti	-3044
▁tali	-3045
▁batus	-3046
▁panal	-3047
▁pangk	-3048
▁patan	-3049
▁barikuik	-3050
▁sapanjang	-3051
▁manggunokan	-3052
▁menghasilkan	-3053
wo	-3054
erv	-3055
iro	-3056
odi	-3057
ork	-3058
wis	-3059
▁bp	-3060
alif	-3061
▁dew	-3062
manen	-3063
▁aman	-3064
▁ratu	-3065
▁kisah	-3066
▁macam	-3067
▁manaj	-3068
▁peris	-3069
▁suara	-3070
▁yoitu	-3071
▁ajaran	-3072
▁cerita	-3073
▁pemuda	-3074
▁taluak	-3075
▁tulisan	-3076
▁misalnya	-3077
▁revolusi	-3078
▁kesehatan	-3079
▁perdagangan	-3080
za	-3081
lan	-3082
rom	-3083
asta	-3084
indo	-3085
sist	-3086
▁bun	-3087
▁tip	-3088
ijaya	-3089
▁trop	-3090
▁umat	-3091
▁debut	-3092
▁kapal	-3093
▁istano	-3094
▁berubah	-3095
▁pemrogr	-3096
▁saketek	-3097
▁tapiliah	-3098
▁keputusan	-3099
▁meningkat	-3100
sh	-3101
ite	-3102
▁ha	-3103
port	-3104
▁sut	-3105
▁war	-3106
aktif	-3107
▁brun	-3108
▁rasa	-3109
ampuah	-3110
▁udara	-3111
▁katigo	-3112
▁parnah	-3113
▁taruih	-3114
▁upacara	-3115
▁pemilihan	-3116
▁statistik	-3117
enj	-3118
impi	-3119
rain	-3120
tani	-3121
▁cur	-3122
▁for	-3123
adiyah	-3124
▁calon	-3125
▁keter	-3126
▁lunak	-3127
▁pengg	-3128
▁puisi	-3129
angsaan	-3130
entukan	-3131
▁keluar	-3132
▁bararti	-3133
▁daratan	-3134
▁langsuang	-3135
▁manjabaik	-3136
▁membangun	-3137
▁diperkirakan	-3138
su	-3139
kar	-3140
▁vi	-3141
▁ibn	-3142
amuan	-3143
▁ciri	-3144
▁sain	-3145
▁siam	-3146
encana	-3147
▁depan	-3148
▁hatta	-3149
▁murid	-3150
▁unsur	-3151
▁usaha	-3152
wakilan	-3153
▁babeda	-3154
▁brunei	-3155
▁supayo	-3156
▁aktivis	-3157
▁sarjana	-3158
▁tagolong	-3159
▁permainan	-3160
pu	-3161
iau	-3162
por	-3163
▁31	-3164
▁32	-3165
apeh	-3166
ekat	-3167
▁gur	-3168
▁gus	-3169
▁lam	-3170
▁ruj	-3171
adoan	-3172
aroan	-3173
usaho	-3174
▁2017	-3175
angkap	-3176
▁bunga	-3177
▁kasus	-3178
▁sangg	-3179
ardekaan	-3180
indahkan	-3181
▁memulai	-3182
▁parlemen	-3183
▁tarutamo	-3184
ith	-3185
ore	-3186
ros	-3187
▁fl	-3188
▁mm	-3189
irip	-3190
▁hab	-3191
atoan	-3192
istan	-3193
okasi	-3194
toran	-3195
yakit	-3196
▁amir	-3197
▁asam	-3198
▁berw	-3199
▁cino	-3200
▁mangh	-3201
▁paman	-3202
▁persi	-3203
▁saudi	-3204
▁jantan	-3205
▁lubang	-3206
▁digital	-3207
▁mamulai	-3208
▁pariwis	-3209
▁heryawan	-3210
▁permanen	-3211
▁kahidupan	-3212
▁kamardekaan	-3213
ajo	-3214
ark	-3215
emi	-3216
ero	-3217
ewa	-3218
ral	-3219
uga	-3220
▁os	-3221
amat	-3222
apun	-3223
ilis	-3224
imer	-3225
uasa	-3226
▁187	-3227
▁akh	-3228
ampak	-3229
tugas	-3230
▁1998	-3231
▁bang	-3232
▁bata	-3233
▁jatu	-3234
▁tind	-3235
▁asing	-3236
▁dinam	-3237
▁gajah	-3238
▁kantu	-3239
▁mayor	-3240
▁sakik	-3241
▁yunan	-3242
ambahan	-3243
atangan	-3244
engahan	-3245
▁adonyo	-3246
▁aliran	-3247
▁lainlain	-3248
▁membantu	-3249
▁satampek	-3250
▁administrasi	-3251
▁patandiangan	-3252
▁ui	-3253
osen	-3254
uler	-3255
airan	-3256
atika	-3257
▁enam	-3258
▁kend	-3259
▁psik	-3260
▁suci	-3261
antung	-3262
▁bundo	-3263
▁jauah	-3264
▁dibagi	-3265
▁maluku	-3266
▁miliar	-3267
ungkinan	-3268
▁parancih	-3269
▁pariwisata	-3270
30	-3271
bb	-3272
ers	-3273
oph	-3274
▁iv	-3275
▁sj	-3276
▁ال	-3277
usat	-3278
▁inv	-3279
▁kue	-3280
▁lib	-3281
▁mew	-3282
▁mor	-3283
▁ris	-3284
emuan	-3285
ovasi	-3286
tahun	-3287
▁park	-3288
▁2007,	-3289
▁bebas	-3290
▁dikar	-3291
▁judul	-3292
▁terus	-3293
alahkan	-3294
umpulan	-3295
▁diband	-3296
▁lembah	-3297
▁satuan	-3298
▁sesuai	-3299
▁swasta	-3300
▁yunani	-3301
▁dipakir	-3302
▁negaran	-3303
▁penyakit	-3304
▁perwakilan	-3305
,5	-3306
3.	-3307
bo	-3308
hz	-3309
yu	-3310
ikm	-3311
lat	-3312
omo	-3313
anse	-3314
deka	-3315
epas	-3316
▁188	-3317
▁car	-3318
▁lew	-3319
▁nuk	-3320
okter	-3321
ongan	-3322
▁1990	-3323
▁alum	-3324
▁basa	-3325
▁jamb	-3326
▁lamb	-3327
▁said	-3328
▁suhu	-3329
▁kalau	-3330
okteran	-3331
▁buddha	-3332
▁energi	-3333
▁sakura	-3334
▁pelajar	-3335
▁manajemen	-3336
ke	-3337
ida	-3338
ish	-3339
ker	-3340
resi	-3341
ujuk	-3342
▁lag	-3343
▁mek	-3344
▁tni	-3345
▁ung	-3346
eknyo	-3347
▁alun	-3348
▁ayat	-3349
▁gaya	-3350
▁padi	-3351
▁perc	-3352
ulusan	-3353
▁intel	-3354
▁kareh	-3355
▁saaik	-3356
▁tepat	-3357
angsung	-3358
▁dingin	-3359
▁manikah	-3360
▁marupakan	-3361
▁pakambangan	-3362
▁menggantikan	-3363
18	-3364
40	-3365
ce	-3366
lo	-3367
rop	-3368
▁la	-3369
abek	-3370
tika	-3371
▁bub	-3372
▁cah	-3373
▁kud	-3374
▁nyo	-3375
▁sib	-3376
ektor	-3377
onton	-3378
▁2011,	-3379
▁alami	-3380
▁benda	-3381
▁keras	-3382
▁korup	-3383
ahankan	-3384
arangan	-3385
▁indang	-3386
▁metode	-3387
▁persia	-3388
▁proyek	-3389
▁pulang	-3390
▁sasuai	-3391
▁catatan	-3392
▁kontrak	-3393
▁mamakai	-3394
▁membawa	-3395
▁pendiri	-3396
▁ruangan	-3397
▁kekuasaan	-3398
▁orangorang	-3399
▁university	-3400
ne	-3401
ehi	-3402
wah	-3403
mana	-3404
oran	-3405
itiak	-3406
▁1950	-3407
▁area	-3408
▁diab	-3409
▁hadi	-3410
▁kary	-3411
ografi	-3412
ometer	-3413
▁ajang	-3414
▁bagai	-3415
▁bambu	-3416
▁berat	-3417
▁kanan	-3418
▁korea	-3419
▁strat	-3420
▁total	-3421
engaruh	-3422
▁beliau	-3423
▁dialek	-3424
▁hampia	-3425
▁sekret	-3426
▁tanduk	-3427
▁ukiran	-3428
▁kuantan	-3429
▁saparti	-3430
▁diangkek	-3431
▁kalangan	-3432
▁kesenian	-3433
▁produksi	-3434
▁kilometer	-3435
▁memperoleh	-3436
▁batusangkar	-3437
▁pemrograman	-3438
▁pertengahan	-3439
if	-3440
se	-3441
ira	-3442
▁rp	-3443
anto	-3444
ogen	-3445
▁rem	-3446
▁ren	-3447
arnya	-3448
iring	-3449
▁hend	-3450
▁mulo	-3451
▁rand	-3452
▁simb	-3453
▁2004,	-3454
▁allah	-3455
▁alqur	-3456
▁anwar	-3457
▁ikuik	-3458
▁takah	-3459
▁masehi	-3460
▁mengel	-3461
▁sakita	-3462
▁school	-3463
▁lapangan	-3464
▁antaronyo	-3465
▁peninggalan	-3466
▁negaranegara	-3467
▁pengembangan	-3468
17	-3469
ean	-3470
▁on	-3471
▁eri	-3472
▁meg	-3473
▁tes	-3474
▁top	-3475
empah	-3476
▁anam	-3477
▁irak	-3478
▁mati	-3479
▁patu	-3480
▁raso	-3481
alangg	-3482
alisis	-3483
terian	-3484
▁ingin	-3485
▁memas	-3486
▁pertu	-3487
▁takan	-3488
▁tungg	-3489
inggian	-3490
▁sekali	-3491
▁selalu	-3492
▁senior	-3493
▁sensus	-3494
▁terbit	-3495
▁ayahnyo	-3496
▁kampuang	-3497
▁menyerap	-3498
▁perubahan	-3499
▁kabanyakan	-3500
▁perjuangan	-3501
▁berlangsung	-3502
▁malanjuikan	-3503
23	-3504
sy	-3505
te	-3506
osa	-3507
sch	-3508
zal	-3509
unda	-3510
▁end	-3511
▁gua	-3512
▁han	-3513
▁lem	-3514
▁pot	-3515
asaan	-3516
atasi	-3517
awang	-3518
▁nukl	-3519
▁siap	-3520
ontalo	-3521
▁2006,	-3522
▁afgan	-3523
▁bapak	-3524
▁ialah	-3525
▁meski	-3526
▁pangh	-3527
▁ramad	-3528
▁tulus	-3529
▁ujung	-3530
ediakan	-3531
▁carito	-3532
▁ditunj	-3533
▁naskah	-3534
▁pendek	-3535
▁kandang	-3536
▁persegi	-3537
▁diangkat	-3538
▁simpanse	-3539
▁turnamen	-3540
▁kedokteran	-3541
▁pagaruyung	-3542
▁panggunoan	-3543
4.	-3544
56	-3545
bur	-3546
yal	-3547
▁ep	-3548
▁ts	-3549
atus	-3550
elar	-3551
▁col	-3552
awati	-3553
ampang	-3554
angkok	-3555
ombang	-3556
▁2012,	-3557
▁2014,	-3558
▁capek	-3559
▁garih	-3560
▁palab	-3561
▁stand	-3562
▁teori	-3563
▁wafat	-3564
anduang	-3565
▁kantua	-3566
▁konsep	-3567
▁tropis	-3568
aksanaan	-3569
▁distrik	-3570
▁manulih	-3571
▁relatif	-3572
▁salatan	-3573
▁tanduak	-3574
ambangkan	-3575
▁kaluarga	-3576
▁kotakota	-3577
▁madrasah	-3578
▁pamainan	-3579
▁pengaruh	-3580
enggarakan	-3581
▁kemampuan	-3582
▁malakukan	-3583
▁peristiwa	-3584
▁urangurang	-3585
▁kementerian	-3586
ky	-3587
rab	-3588
ria	-3589
uhi	-3590
yaw	-3591
▁60	-3592
alin	-3593
awar	-3594
inah	-3595
urek	-3596
▁pai	-3597
agara	-3598
alkan	-3599
grasi	-3600
inggu	-3601
uanya	-3602
yakik	-3603
▁emas	-3604
▁sari	-3605
▁solo	-3606
▁kalah	-3607
▁papan	-3608
▁berita	-3609
▁menuju	-3610
▁pember	-3611
▁penyel	-3612
ingkatan	-3613
▁pasaman	-3614
▁anakanak	-3615
▁prestasi	-3616
▁mendukung	-3617
▁singkarak	-3618
▁tertinggi	-3619
▁akreditasi	-3620
▁berbatasan	-3621
tug	-3622
zah	-3623
▁ij	-3624
inci	-3625
ivid	-3626
▁186	-3627
anjak	-3628
▁1960	-3629
▁bana	-3630
▁efek	-3631
▁fifa	-3632
arikan	-3633
ebaran	-3634
fungsi	-3635
▁agung	-3636
▁batik	-3637
▁melip	-3638
▁milik	-3639
▁raden	-3640
▁malaka	-3641
▁muhamm	-3642
▁tertua	-3643
▁awalnyo	-3644
▁individ	-3645
▁namanya	-3646
▁simpang	-3647
▁manyerap	-3648
▁mengandung	-3649
▁sekretaris	-3650
▁muhammadiyah	-3651
▁international	-3652
ge	-3653
ene	-3654
iki	-3655
unt	-3656
▁pp	-3657
amah	-3658
emon	-3659
erak	-3660
ilia	-3661
osok	-3662
▁ach	-3663
▁fat	-3664
▁hib	-3665
▁mau	-3666
▁mhz	-3667
▁nir	-3668
▁yus	-3669
egori	-3670
▁1949	-3671
▁1965	-3672
▁1981	-3673
▁2019	-3674
▁fils	-3675
▁susu	-3676
ijakan	-3677
▁2008,	-3678
▁cepat	-3679
▁champ	-3680
▁seles	-3681
aisaran	-3682
ibatkan	-3683
▁gereja	-3684
▁sektor	-3685
ambarkan	-3686
▁basurek	-3687
▁diikuti	-3688
▁ditulis	-3689
▁lulusan	-3690
▁namonyo	-3691
▁akhianyo	-3692
▁berwarna	-3693
▁campuran	-3694
▁langkawi	-3695
▁mambantu	-3696
▁diberikan	-3697
▁gorontalo	-3698
▁mambangun	-3699
▁perangkek	-3700
▁menunjukkan	-3701
22	-3702
qu	-3703
dak	-3704
hak	-3705
▁do	-3706
elas	-3707
hari	-3708
ongg	-3709
raya	-3710
▁cac	-3711
▁rut	-3712
▁sig	-3713
ajian	-3714
tiang	-3715
ujuak	-3716
▁2018	-3717
▁bant	-3718
▁dana	-3719
▁main	-3720
ariasi	-3721
eksiko	-3722
uaraan	-3723
▁bakar	-3724
▁karim	-3725
▁kubah	-3726
▁padri	-3727
elajari	-3728
induang	-3729
olongan	-3730
udayoan	-3731
▁divisi	-3732
▁tumbuh	-3733
▁kadangk	-3734
▁terumbu	-3735
aksanakan	-3736
▁belakang	-3737
▁diadakan	-3738
▁hidangan	-3739
▁material	-3740
▁panyakik	-3741
▁restoran	-3742
▁nusantara	-3743
▁permukaan	-3744
▁sabalumnyo	-3745
▁dibandingkan	-3746
aim	-3747
sip	-3748
yar	-3749
▁bu	-3750
arai	-3751
epon	-3752
idan	-3753
sman	-3754
tera	-3755
uali	-3756
▁dag	-3757
▁duk	-3758
▁imp	-3759
aktur	-3760
umber	-3761
uonyo	-3762
▁1995	-3763
▁alek	-3764
▁djam	-3765
▁hawa	-3766
▁jasa	-3767
▁tatu	-3768
▁teks	-3769
▁thai	-3770
aronyo	-3771
uruhan	-3772
utuhan	-3773
▁dosen	-3774
▁kelah	-3775
▁malip	-3776
▁menang	-3777
▁portug	-3778
▁sarana	-3779
▁simson	-3780
▁sukses	-3781
▁korupsi	-3782
▁mancari	-3783
▁pasifik	-3784
▁pasisia	-3785
▁rakyaik	-3786
▁berbasis	-3787
▁dindiang	-3788
▁ditambah	-3789
▁meliputi	-3790
▁memimpin	-3791
▁tanjungp	-3792
▁kapulauan	-3793
▁parubahan	-3794
hl	-3795
yn	-3796
cam	-3797
ibi	-3798
ten	-3799
una	-3800
▁ev	-3801
alih	-3802
asal	-3803
awal	-3804
ayar	-3805
tain	-3806
urus	-3807
▁dal	-3808
▁jac	-3809
▁raf	-3810
asama	-3811
ograf	-3812
▁ameh	-3813
▁arti	-3814
▁ilim	-3815
▁konf	-3816
▁kopi	-3817
alitas	-3818
ameter	-3819
▁dimak	-3820
▁harga	-3821
▁jinih	-3822
▁kawan	-3823
antuang	-3824
faatkan	-3825
roduksi	-3826
▁urusan	-3827
▁sanggau	-3828
▁kategori	-3829
▁kelahiran	-3830
▁perbedaan	-3831
ba	-3832
sp	-3833
tis	-3834
▁45	-3835
ajak	-3836
gone	-3837
tion	-3838
umua	-3839
▁500	-3840
▁coc	-3841
▁com	-3842
▁mot	-3843
▁rab	-3844
▁ref	-3845
angko	-3846
egang	-3847
inang	-3848
insip	-3849
▁kita	-3850
▁prak	-3851
▁2013,	-3852
▁baitu	-3853
▁edisi	-3854
▁istri	-3855
▁marah	-3856
▁panas	-3857
▁timor	-3858
impiade	-3859
uangkan	-3860
▁hadits	-3861
▁karbon	-3862
▁patang	-3863
▁dinding	-3864
▁dilakuan	-3865
▁manyabuik	-3866
▁mutlaknya	-3867
▁mutlaknyo	-3868
▁kabudayoan	-3869
21	-3870
adu	-3871
dan	-3872
her	-3873
jem	-3874
mur	-3875
til	-3876
▁ng	-3877
▁ub	-3878
arto	-3879
aktor	-3880
umpur	-3881
▁1985	-3882
▁comp	-3883
▁ibuk	-3884
▁sapi	-3885
▁iduik	-3886
▁maaja	-3887
nikahan	-3888
▁alasan	-3889
▁manyab	-3890
▁meksiko	-3891
▁rujukan	-3892
▁kekuatan	-3893
▁pahlawan	-3894
▁penerbit	-3895
▁politisi	-3896
▁institusi	-3897
▁peringkat	-3898
▁badasarkan	-3899
▁dipindahkan	-3900
▁menyebabkan	-3901
38	-3902
eba	-3903
ipt	-3904
▁cb	-3905
▁dh	-3906
▁fc	-3907
ence	-3908
▁cor	-3909
▁teb	-3910
amoan	-3911
angat	-3912
tusan	-3913
uasai	-3914
▁1992	-3915
▁dora	-3916
▁limb	-3917
▁lint	-3918
▁lueh	-3919
▁seng	-3920
▁tabi	-3921
▁teth	-3922
▁tugu	-3923
▁lewat	-3924
▁lulus	-3925
▁super	-3926
▁tabik	-3927
▁tahap	-3928
▁teuku	-3929
erdasan	-3930
▁dewasa	-3931
▁kamang	-3932
▁malaya	-3933
▁tenaga	-3934
▁hawazin	-3935
▁merdeka	-3936
▁akademik	-3937
▁doraemon	-3938
▁mayoritas	-3939
▁terbentuk	-3940
197	-3941
ema	-3942
pan	-3943
▁35	-3944
amad	-3945
ikal	-3946
ment	-3947
ujud	-3948
▁don	-3949
ampil	-3950
elang	-3951
▁john	-3952
▁perl	-3953
▁temb	-3954
▁uang	-3955
aniago	-3956
epatan	-3957
▁dimas	-3958
▁johor	-3959
▁kesel	-3960
▁lalat	-3961
▁malah	-3962
onsumsi	-3963
▁diperc	-3964
▁jarang	-3965
▁kompet	-3966
▁tujuah	-3967
▁delapan	-3968
▁erigone	-3969
▁merujuk	-3970
▁tumbuah	-3971
▁malakuan	-3972
▁maliputi	-3973
▁berukuran	-3974
▁pajalanan	-3975
▁tabantuak	-3976
▁mengembangkan	-3977
yi	-3978
esh	-3979
kas	-3980
▁80	-3981
akat	-3982
▁cav	-3983
▁era	-3984
▁mol	-3985
▁pbb	-3986
kabel	-3987
umkan	-3988
erakan	-3989
mbuhan	-3990
▁benua	-3991
▁hijau	-3992
▁ilimu	-3993
▁lengk	-3994
▁peran	-3995
▁songk	-3996
▁sosok	-3997
▁tangk	-3998
esmikan	-3999
yawarah	-4000
▁bawang	-4001
▁lumpur	-4002
▁simbol	-4003
▁familia	-4004
▁masiang	-4005
▁semakin	-4006
▁tarumbu	-4007
▁ditempuh	-4008
▁nirkabel	-4009
▁nonaktif	-4010
▁tatinggi	-4011
▁tertentu	-4012
▁tindakan	-4013
▁ditampuah	-4014
▁mengambil	-4015
▁olimpiade	-4016
ekomunikasi	-4017
▁dikarajoan	-4018
▁menjadikan	-4019
6.	-4020
bi	-4021
kl	-4022
chi	-4023
▁ki	-4024
▁lan	-4025
▁reg	-4026
ainya	-4027
ibusi	-4028
ulasi	-4029
▁gigi	-4030
▁muko	-4031
▁rupa	-4032
▁siko	-4033
▁dinas	-4034
▁tujuh	-4035
▁umaik	-4036
alisasi	-4037
anggung	-4038
▁memang	-4039
▁mengan	-4040
▁rendah	-4041
▁ujuang	-4042
▁barisan	-4043
▁ibukota	-4044
▁pattani	-4045
▁selesai	-4046
▁tunggal	-4047
▁mamimpin	-4048
▁sembilan	-4049
▁sakaligus	-4050
acu	-4051
ash	-4052
pek	-4053
pul	-4054
▁ex	-4055
▁pd	-4056
roco	-4057
uruf	-4058
▁183	-4059
▁apa	-4060
▁def	-4061
▁fit	-4062
▁gas	-4063
▁nob	-4064
ahasa	-4065
andan	-4066
arata	-4067
atiah	-4068
ender	-4069
ensis	-4070
uanyo	-4071
yawar	-4072
▁dhar	-4073
▁fort	-4074
▁kapa	-4075
▁tibo	-4076
▁tipe	-4077
amanan	-4078
ukiman	-4079
▁2009,	-4080
▁bareh	-4081
▁final	-4082
▁mirip	-4083
▁smith	-4084
masiang	-4085
operasi	-4086
▁doktor	-4087
▁pangan	-4088
▁polisi	-4089
▁bandara	-4090
▁dataran	-4091
▁dipangg	-4092
▁ilmuwan	-4093
▁pakaian	-4094
▁daripada	-4095
▁daripado	-4096
▁menerima	-4097
▁ratarata	-4098
▁pangaruah	-4099
▁sikumbang	-4100
▁padangroco	-4101
kh	-4102
oy	-4103
ts	-4104
agn	-4105
tra	-4106
▁90	-4107
akeh	-4108
anji	-4109
atib	-4110
etap	-4111
iver	-4112
krip	-4113
onan	-4114
uluh	-4115
umat	-4116
▁vol	-4117
egoro	-4118
irasi	-4119
oklam	-4120
ordin	-4121
▁1997	-4122
▁bari	-4123
▁ikut	-4124
▁mode	-4125
▁mong	-4126
▁ndak	-4127
▁pria	-4128
▁sans	-4129
erjaan	-4130
ilingi	-4131
tujuan	-4132
▁balap	-4133
▁dikal	-4134
▁pergi	-4135
▁syari	-4136
iptakan	-4137
umumkan	-4138
▁garuda	-4139
▁langau	-4140
▁manuju	-4141
▁sutrad	-4142
▁syarif	-4143
▁akademi	-4144
▁alquran	-4145
▁babateh	-4146
▁madinah	-4147
▁mencari	-4148
▁standar	-4149
▁warisan	-4150
▁bersifat	-4151
▁generasi	-4152
▁keadilan	-4153
▁tersebar	-4154
▁kapasitas	-4155
▁kecerdasan	-4156
ld	-4157
taw	-4158
▁1,	-4159
▁uu	-4160
acam	-4161
ikel	-4162
▁kok	-4163
▁nil	-4164
▁rac	-4165
▁vid	-4166
assar	-4167
astik	-4168
enang	-4169
orato	-4170
pulau	-4171
tanya	-4172
▁awak	-4173
▁gadi	-4174
▁kuat	-4175
▁mask	-4176
▁1945,	-4177
▁2015,	-4178
▁bumbu	-4179
▁caves	-4180
▁kulit	-4181
▁montr	-4182
▁pokok	-4183
▁sains	-4184
▁tagak	-4185
atahuan	-4186
enggara	-4187
ferensi	-4188
▁berper	-4189
▁diubah	-4190
▁hadiah	-4191
▁mampar	-4192
▁memori	-4193
▁mengak	-4194
▁rantau	-4195
▁remaja	-4196
▁utsman	-4197
▁dikirim	-4198
▁kerinci	-4199
▁pejabat	-4200
▁reaktor	-4201
▁sebutan	-4202
▁filsafat	-4203
▁ratorato	-4204
▁mandirian	-4205
▁pembuatan	-4206
▁mandukuang	-4207
▁mengatakan	-4208
▁panalitian	-4209
▁menyediakan	-4210
▁pertumbuhan	-4211
▁kadangkadang	-4212
▁masiangmasiang	-4213
eli	-4214
erc	-4215
ris	-4216
akup	-4217
eang	-4218
form	-4219
▁fed	-4220
▁gir	-4221
ahari	-4222
alian	-4223
egitu	-4224
▁pant	-4225
▁plan	-4226
▁syah	-4227
alatan	-4228
ananyo	-4229
anjuik	-4230
uarkan	-4231
▁lebar	-4232
▁pajak	-4233
▁tatan	-4234
anjuang	-4235
ominasi	-4236
portasi	-4237
▁bangso	-4238
▁randah	-4239
ubungkan	-4240
▁barasal	-4241
▁limbago	-4242
▁melihat	-4243
▁tantara	-4244
▁kanduang	-4245
▁kualitas	-4246
▁matahari	-4247
▁tumbuhan	-4248
▁sutradara	-4249
▁pertamanya	-4250
▁pangatahuan	-4251
44	-4252
ft	-4253
oso	-4254
▁0,	-4255
abis	-4256
atik	-4257
epak	-4258
idik	-4259
orld	-4260
plin	-4261
ukis	-4262
▁itb	-4263
▁let	-4264
ahami	-4265
amaik	-4266
asuik	-4267
estan	-4268
impan	-4269
otong	-4270
utasi	-4271
▁biji	-4272
▁dprd	-4273
▁lulu	-4274
▁rayo	-4275
▁ungg	-4276
▁unik	-4277
▁latin	-4278
▁sifat	-4279
▁world	-4280
arihari	-4281
▁mekkah	-4282
▁mengad	-4283
▁paralu	-4284
▁pemilu	-4285
▁persen	-4286
▁petani	-4287
▁rektor	-4288
▁panglim	-4289
▁polimer	-4290
▁susunan	-4291
▁golongan	-4292
▁kaduonyo	-4293
▁kakuatan	-4294
▁keduanya	-4295
▁konstitu	-4296
▁makassar	-4297
▁mencetak	-4298
▁kamampuan	-4299
▁kariernya	-4300
▁peraturan	-4301
▁dimakamkan	-4302
▁keberadaan	-4303
▁pulaupulau	-4304
▁jurnalistik	-4305
▁mangarajoan	-4306
▁telekomunikasi	-4307
uw	-4308
aul	-4309
com	-4310
eno	-4311
eth	-4312
▁33	-4313
▁sc	-4314
▁ue	-4315
esan	-4316
okus	-4317
taka	-4318
▁kum	-4319
▁mit	-4320
▁nav	-4321
▁ton	-4322
▁wah	-4323
afsir	-4324
olaan	-4325
▁1982	-4326
▁glob	-4327
▁jiko	-4328
▁laia	-4329
▁liau	-4330
▁port	-4331
▁stef	-4332
abuhan	-4333
apatan	-4334
emukan	-4335
▁award	-4336
▁disel	-4337
▁kulik	-4338
▁tatap	-4339
▁ulang	-4340
embatan	-4341
utuskan	-4342
▁dokter	-4343
▁sangek	-4344
▁akibaik	-4345
▁berusia	-4346
▁menarik	-4347
▁pejuang	-4348
▁sadonyo	-4349
▁sadoalah	-4350
▁disebabkan	-4351
▁kabudayaan	-4352
▁diantaranya	-4353
zh	-4354
abu	-4355
all	-4356
che	-4357
erm	-4358
ill	-4359
isl	-4360
oko	-4361
tup	-4362
▁bh	-4363
▁ja	-4364
asai	-4365
ebat	-4366
ontr	-4367
orer	-4368
udin	-4369
viet	-4370
yyah	-4371
▁aud	-4372
▁can	-4373
▁dav	-4374
▁mik	-4375
▁muk	-4376
▁pks	-4377
▁uma	-4378
okiro	-4379
▁anas	-4380
▁duta	-4381
▁gand	-4382
▁maya	-4383
▁meja	-4384
▁segi	-4385
▁tern	-4386
edakan	-4387
▁2005,	-4388
▁gangg	-4389
▁salim	-4390
▁sunda	-4391
▁udaro	-4392
▁video	-4393
▁zidan	-4394
ussalam	-4395
▁begitu	-4396
▁capell	-4397
▁desain	-4398
▁hiasan	-4399
▁bajalan	-4400
▁batikam	-4401
▁bawarna	-4402
▁mambaok	-4403
▁sajarah	-4404
▁samakin	-4405
▁analisis	-4406
▁dilantik	-4407
▁montreal	-4408
▁tambahan	-4409
▁padagangan	-4410
▁transportasi	-4411
ee	-4412
sr	-4413
.10	-4414
ior	-4415
oda	-4416
zar	-4417
▁fu	-4418
▁kw	-4419
alik	-4420
asim	-4421
elis	-4422
enti	-4423
ipta	-4424
ogor	-4425
tuan	-4426
uatu	-4427
▁ism	-4428
ainyo	-4429
arani	-4430
asian	-4431
opang	-4432
▁agak	-4433
▁jama	-4434
ervasi	-4435
onjong	-4436
▁alaik	-4437
▁bogor	-4438
▁kepem	-4439
▁lapau	-4440
▁manis	-4441
▁panah	-4442
▁usaho	-4443
▁alumni	-4444
▁antark	-4445
▁baumua	-4446
▁pandai	-4447
▁patani	-4448
▁puluah	-4449
▁soviet	-4450
▁tampak	-4451
ambahkan	-4452
▁bahasil	-4453
▁diambil	-4454
▁manyadi	-4455
▁mulonyo	-4456
▁pandiri	-4457
▁panulih	-4458
▁individu	-4459
▁maambiak	-4460
▁mancetak	-4461
▁pakistan	-4462
▁dibantuak	-4463
▁kompetisi	-4464
▁organisme	-4465
▁pelabuhan	-4466
▁perjanjian	-4467
▁pernikahan	-4468
▁diantaronyo	-4469
▁memenangkan	-4470
yl	-4471
.23	-4472
196	-4473
ack	-4474
bak	-4475
els	-4476
apor	-4477
baik	-4478
ebih	-4479
omba	-4480
ukak	-4481
ungi	-4482
▁anc	-4483
▁bes	-4484
▁dul	-4485
▁eur	-4486
▁far	-4487
▁sit	-4488
encan	-4489
etika	-4490
etnam	-4491
irman	-4492
uniai	-4493
▁1974	-4494
▁comm	-4495
▁deli	-4496
▁dend	-4497
▁dewa	-4498
▁gulo	-4499
▁isra	-4500
▁kock	-4501
▁musa	-4502
▁rusa	-4503
▁sury	-4504
▁unix	-4505
adatan	-4506
awanan	-4507
▁gagal	-4508
▁hakim	-4509
▁hilir	-4510
▁kalua	-4511
▁mempr	-4512
▁sipil	-4513
▁suaro	-4514
▁gading	-4515
▁nagaro	-4516
▁publik	-4517
▁sakali	-4518
▁saling	-4519
▁tampil	-4520
▁tethya	-4521
▁zidane	-4522
▁artinya	-4523
▁gaduang	-4524
▁janjang	-4525
▁mineral	-4526
▁plastik	-4527
▁satusat	-4528
▁vietnam	-4529
▁berjalan	-4530
▁berjudul	-4531
▁dibentuk	-4532
▁kematian	-4533
▁marujuak	-4534
▁maskapai	-4535
▁pedagang	-4536
▁terlihat	-4537
▁berfungsi	-4538
▁dimainkan	-4539
▁psikologi	-4540
▁semenanjung	-4541
▁pamarentahan	-4542
bu	-4543
ng	-4544
inc	-4545
nif	-4546
oma	-4547
▁ug	-4548
egis	-4549
ilin	-4550
mpan	-4551
oris	-4552
▁apo	-4553
▁bon	-4554
▁jah	-4555
▁rup	-4556
akkan	-4557
angku	-4558
ental	-4559
▁1946	-4560
▁1948	-4561
▁1991	-4562
▁bila	-4563
▁cina	-4564
▁dian	-4565
▁pola	-4566
▁uefa	-4567
adaban	-4568
urangi	-4569
▁matem	-4570
▁yamin	-4571
empatan	-4572
inginan	-4573
ityawar	-4574
nifikan	-4575
▁balair	-4576
▁duduak	-4577
▁muncua	-4578
ingkekan	-4579
▁diadoan	-4580
▁memilih	-4581
▁pustaka	-4582
▁ditamuan	-4583
▁jembatan	-4584
▁kirokiro	-4585
▁perintah	-4586
▁serangan	-4587
▁bangsawan	-4588
▁reformasi	-4589
▁strategis	-4590
▁signifikan	-4591
47	-4592
198	-4593
aid	-4594
eph	-4595
kin	-4596
lad	-4597
tim	-4598
uto	-4599
▁mc	-4600
▁na	-4601
ahas	-4602
empa	-4603
inis	-4604
itis	-4605
pres	-4606
syah	-4607
▁baf	-4608
▁buj	-4609
▁cir	-4610
▁gro	-4611
▁kau	-4612
aruih	-4613
chtar	-4614
kerta	-4615
unkan	-4616
▁arke	-4617
▁bala	-4618
▁bilo	-4619
▁kayo	-4620
▁orde	-4621
▁peta	-4622
▁saik	-4623
▁sese	-4624
▁situ	-4625
▁soeh	-4626
▁sriw	-4627
bangan	-4628
daerah	-4629
ekolah	-4630
enggan	-4631
▁bakeh	-4632
▁bekas	-4633
▁dayak	-4634
▁dilah	-4635
▁duduk	-4636
▁ekstr	-4637
▁melah	-4638
▁natal	-4639
▁penuh	-4640
▁rasmi	-4641
▁rekor	-4642
▁saraf	-4643
▁tatuo	-4644
adangan	-4645
truktur	-4646
▁champi	-4647
▁itulah	-4648
▁kapten	-4649
▁sampah	-4650
▁santan	-4651
▁tanago	-4652
▁balangs	-4653
▁kambali	-4654
▁keadaan	-4655
▁komunis	-4656
▁langkah	-4657
▁prinsip	-4658
▁seniman	-4659
▁akhirnyo	-4660
▁capellen	-4661
▁demokrat	-4662
▁disiplin	-4663
▁tarakhia	-4664
▁hubuangan	-4665
▁pendirian	-4666
▁sanskerta	-4667
▁seseorang	-4668
▁dikaruniai	-4669
▁manyatokan	-4670
▁berhubungan	-4671
▁keseluruhan	-4672
▁manganduang	-4673
▁mempelajari	-4674
▁daerahdaerah	-4675
etu	-4676
ito	-4677
ras	-4678
▁70	-4679
▁jl	-4680
eman	-4681
imah	-4682
onen	-4683
otel	-4684
▁dur	-4685
▁kos	-4686
▁tri	-4687
▁val	-4688
ayani	-4689
icayo	-4690
otaan	-4691
▁aziz	-4692
▁dara	-4693
▁demi	-4694
▁indr	-4695
▁prop	-4696
akaran	-4697
arokan	-4698
atawan	-4699
etakan	-4700
ologis	-4701
▁jacob	-4702
▁sirah	-4703
▁tongg	-4704
utuihan	-4705
▁dibuka	-4706
▁disamp	-4707
▁global	-4708
▁inform	-4709
▁kacang	-4710
▁patumb	-4711
▁reaksi	-4712
▁romawi	-4713
▁babasis	-4714
▁barubah	-4715
▁diganti	-4716
▁dirinya	-4717
▁lampung	-4718
▁lapisan	-4719
▁pajuang	-4720
▁salapeh	-4721
ungkinkan	-4722
▁diplomat	-4723
▁maharani	-4724
ityawarman	-4725
▁demokrasi	-4726
▁dipercaya	-4727
▁manunjang	-4728
▁menunjang	-4729
▁pandangan	-4730
▁wisatawan	-4731
▁menjalankan	-4732
70	-4733
kr	-4734
va	-4735
eku	-4736
emu	-4737
eod	-4738
les	-4739
ock	-4740
san	-4741
▁ho	-4742
▁kg	-4743
▁rs	-4744
esli	-4745
ikok	-4746
siun	-4747
▁alf	-4748
▁cuc	-4749
▁gab	-4750
▁has	-4751
▁hus	-4752
▁pep	-4753
▁zat	-4754
sikan	-4755
▁1947	-4756
▁1978	-4757
▁berc	-4758
▁bulu	-4759
▁drag	-4760
▁emir	-4761
▁geor	-4762
▁gula	-4763
▁ibnu	-4764
▁mahy	-4765
▁perw	-4766
▁pond	-4767
▁pres	-4768
▁rimb	-4769
ailing	-4770
awasan	-4771
landia	-4772
▁dipac	-4773
▁itiak	-4774
▁kabel	-4775
▁karak	-4776
▁manag	-4777
▁saman	-4778
▁seben	-4779
▁sinan	-4780
esaikan	-4781
impunan	-4782
▁goreng	-4783
▁harago	-4784
▁ibunya	-4785
▁israel	-4786
▁kelapa	-4787
▁pengel	-4788
▁siaran	-4789
▁utusan	-4790
▁ditulih	-4791
▁kongres	-4792
▁memberi	-4793
▁patuang	-4794
▁salasai	-4795
▁diadokan	-4796
▁dukungan	-4797
▁manarimo	-4798
▁redaktur	-4799
▁singingi	-4800
▁kendaraan	-4801
▁khususnya	-4802
▁pekerjaan	-4803
▁sabananyo	-4804
▁sriwijaya	-4805
▁darussalam	-4806
▁diresmikan	-4807
▁mengadakan	-4808
▁palabuahan	-4809
▁patangahan	-4810
36	-4811
sal	-4812
tok	-4813
▁au	-4814
adal	-4815
aram	-4816
arin	-4817
asik	-4818
ibat	-4819
olik	-4820
▁naz	-4821
▁ray	-4822
▁sta	-4823
ajuan	-4824
ataan	-4825
orneo	-4826
▁1958	-4827
▁sand	-4828
▁tang	-4829
enting	-4830
irinya	-4831
▁babed	-4832
▁batak	-4833
▁gadih	-4834
▁huruf	-4835
▁kasih	-4836
▁lahan	-4837
▁riset	-4838
emporer	-4839
erahkan	-4840
erintah	-4841
▁buatan	-4842
▁diduga	-4843
▁ditand	-4844
▁kubang	-4845
▁malang	-4846
▁mangal	-4847
▁mongol	-4848
▁nuklir	-4849
▁sakola	-4850
▁batavia	-4851
▁dimakan	-4852
▁memakai	-4853
▁proklam	-4854
▁tonggak	-4855
▁bertugas	-4856
▁kalender	-4857
▁manganai	-4858
▁samudera	-4859
▁transfer	-4860
▁balairung	-4861
▁dinamakan	-4862
▁paringkek	-4863
▁pertemuan	-4864
▁digantikan	-4865
▁sebenarnya	-4866
▁balangsuang	-4867
▁kontemporer	-4868
▁manggantian	-4869
▁paninggalan	-4870
28	-4871
46	-4872
bk	-4873
ys	-4874
abd	-4875
elo	-4876
hal	-4877
put	-4878
▁ip	-4879
▁mr	-4880
amar	-4881
bang	-4882
ebon	-4883
juan	-4884
onel	-4885
onya	-4886
tamo	-4887
uhak	-4888
ukih	-4889
user	-4890
ustr	-4891
▁bol	-4892
▁diw	-4893
▁fal	-4894
▁isa	-4895
▁usu	-4896
aksud	-4897
annyo	-4898
nalis	-4899
tawai	-4900
▁1977	-4901
▁1993	-4902
▁dato	-4903
▁mahk	-4904
▁nusa	-4905
▁saya	-4906
agaman	-4907
aranyo	-4908
atahui	-4909
ayaran	-4910
usakan	-4911
yataan	-4912
▁bukti	-4913
▁bunda	-4914
▁dhabi	-4915
▁dipar	-4916
▁jamur	-4917
▁lisan	-4918
▁mahat	-4919
▁natur	-4920
▁sikap	-4921
▁tamat	-4922
aporkan	-4923
engkapi	-4924
▁dakwah	-4925
▁ikatan	-4926
▁komite	-4927
▁menimb	-4928
▁pamili	-4929
▁rempah	-4930
▁tabagi	-4931
tahankan	-4932
▁bahrain	-4933
▁kalinya	-4934
▁masajik	-4935
▁rencana	-4936
▁saluran	-4937
▁sunting	-4938
▁mentawai	-4939
▁merantau	-4940
▁soeharto	-4941
▁kejuaraan	-4942
▁pajuangan	-4943
▁pandirian	-4944
▁kasultanan	-4945
▁konferensi	-4946
▁mandailing	-4947
▁melahirkan	-4948
▁meninggalkan	-4949
▁meningkatkan	-4950
67	-4951
ary	-4952
edi	-4953
isk	-4954
▁pc	-4955
enek	-4956
erit	-4957
imal	-4958
tuik	-4959
▁185	-4960
▁drs	-4961
▁kip	-4962
▁lev	-4963
▁mih	-4964
▁pon	-4965
injau	-4966
kuran	-4967
▁diar	-4968
▁kuek	-4969
▁sent	-4970
▁tjok	-4971
awinan	-4972
ersial	-4973
teraan	-4974
▁akses	-4975
▁banua	-4976
▁hotel	-4977
▁lareh	-4978
▁liter	-4979
▁liver	-4980
▁menam	-4981
▁pingg	-4982
▁pitih	-4983
ektorat	-4984
masraya	-4985
▁ismail	-4986
▁italia	-4987
▁kaluar	-4988
▁segala	-4989
▁timnas	-4990
estarian	-4991
▁artikel	-4992
▁dirinyo	-4993
▁legenda	-4994
▁mamalia	-4995
▁menetap	-4996
▁pariode	-4997
▁mencakup	-4998
▁parintah	-4999
▁akademisi	-5000
▁maningkek	-5001
▁kekaisaran	-5002
▁matematika	-5003
▁memutuskan	-5004
▁dharmasraya	-5005
▁adityawarman	-5006
▁kepemimpinan	-5007
▁penyelenggara	-5008
,3	-5009
29	-5010
33	-5011
86	-5012
ace	-5013
ica	-5014
jen	-5015
mar	-5016
mat	-5017
rol	-5018
wat	-5019
yam	-5020
▁2,	-5021
▁qu	-5022
▁sr	-5023
▁xx	-5024
eria	-5025
faik	-5026
ihad	-5027
irah	-5028
onis	-5029
urat	-5030
▁abb	-5031
▁cak	-5032
▁nio	-5033
▁tai	-5034
asang	-5035
ustak	-5036
▁1959	-5037
▁1973	-5038
▁1984	-5039
▁1987	-5040
▁baju	-5041
▁bodi	-5042
▁jari	-5043
▁laks	-5044
▁land	-5045
▁osis	-5046
▁pacu	-5047
▁york	-5048
ajikan	-5049
alifah	-5050
ancang	-5051
atihan	-5052
ebasan	-5053
empati	-5054
▁2001,	-5055
▁berpr	-5056
▁disab	-5057
▁drama	-5058
▁dunio	-5059
▁ident	-5060
▁jikok	-5061
▁lapeh	-5062
▁luhak	-5063
▁perlu	-5064
▁rokan	-5065
▁rusak	-5066
▁sebab	-5067
▁sigun	-5068
▁sulit	-5069
▁tabek	-5070
▁tangg	-5071
enalkan	-5072
▁banten	-5073
▁baraik	-5074
▁borneo	-5075
▁fisika	-5076
▁gambar	-5077
▁gandhi	-5078
▁guadal	-5079
▁inilah	-5080
▁kadang	-5081
▁maraih	-5082
▁patung	-5083
▁saluak	-5084
▁sarang	-5085
ampilkan	-5086
▁cendana	-5087
▁koordin	-5088
▁potensi	-5089
▁pribumi	-5090
▁binatang	-5091
▁karakter	-5092
▁nominasi	-5093
▁samanjak	-5094
▁berkaitan	-5095
▁manjalani	-5096
▁menemukan	-5097
▁pengarang	-5098
▁antarktika	-5099
▁tanjungpura	-5100
24	-5101
5.	-5102
.11	-5103
col	-5104
kes	-5105
mus	-5106
▁kn	-5107
adat	-5108
aleh	-5109
ohan	-5110
pool	-5111
▁alk	-5112
▁guo	-5113
▁neo	-5114
▁puk	-5115
▁sci	-5116
adapi	-5117
agama	-5118
akuik	-5119
anala	-5120
antar	-5121
ilang	-5122
uruih	-5123
▁dasa	-5124
▁form	-5125
▁jaya	-5126
▁pros	-5127
▁puti	-5128
▁sana	-5129
▁sint	-5130
▁toba	-5131
asinya	-5132
emahan	-5133
osiasi	-5134
▁2017.	-5135
▁angka	-5136
▁banda	-5137
▁gempa	-5138
▁kamar	-5139
▁lomba	-5140
▁massa	-5141
▁matua	-5142
▁pasti	-5143
▁tatok	-5144
▁tuhan	-5145
ekuensi	-5146
▁bandar	-5147
▁dinamo	-5148
▁formal	-5149
▁kanada	-5150
▁luneik	-5151
▁ringan	-5152
▁menjaga	-5153
▁monumen	-5154
▁pelukis	-5155
▁pesawat	-5156
▁samping	-5157
▁portugis	-5158
▁kebijakan	-5159
▁liverpool	-5160
▁menjalani	-5161
▁pengusaha	-5162
▁berikutnya	-5163
▁kemungkinan	-5164
▁pangambangan	-5165
tv	-5166
ve	-5167
dil	-5168
ery	-5169
lin	-5170
mac	-5171
oam	-5172
raf	-5173
vel	-5174
▁pn	-5175
ajib	-5176
ater	-5177
orit	-5178
tern	-5179
utri	-5180
yawa	-5181
▁amx	-5182
▁ass	-5183
▁bed	-5184
▁das	-5185
▁som	-5186
ambia	-5187
ilaku	-5188
ondon	-5189
uluah	-5190
▁1961	-5191
▁1979	-5192
▁atom	-5193
▁isti	-5194
▁pasc	-5195
▁susi	-5196
▁wall	-5197
alehan	-5198
asinyo	-5199
▁baris	-5200
▁batam	-5201
▁darek	-5202
▁eksek	-5203
▁influ	-5204
▁karir	-5205
▁katak	-5206
▁katik	-5207
▁koper	-5208
▁minum	-5209
▁molek	-5210
▁sirip	-5211
▁tajam	-5212
▁tapan	-5213
abiskan	-5214
ografis	-5215
utuhkan	-5216
▁angkek	-5217
▁aturan	-5218
▁banjar	-5219
▁belgia	-5220
▁berisi	-5221
▁diakui	-5222
▁induak	-5223
▁khatib	-5224
▁legisl	-5225
▁lingga	-5226
▁london	-5227
▁mihrab	-5228
▁pidana	-5229
▁tulang	-5230
▁undang	-5231
imbangan	-5232
▁baragam	-5233
▁cirebon	-5234
▁ornamen	-5235
▁pameran	-5236
▁piliang	-5237
▁ramadan	-5238
▁sejenis	-5239
▁setahun	-5240
▁baukuran	-5241
▁berakhir	-5242
▁dijadian	-5243
▁elektrom	-5244
▁kamatian	-5245
▁karbonat	-5246
▁khalifah	-5247
▁mamiliah	-5248
▁peneliti	-5249
▁penghulu	-5250
▁prosesor	-5251
▁tepatnya	-5252
▁terlibat	-5253
▁disajikan	-5254
▁politikus	-5255
▁konstitusi	-5256
▁musyawarah	-5257
▁pamiliahan	-5258
35	-5259
hu	-5260
ath	-5261
cet	-5262
get	-5263
ila	-5264
jam	-5265
way	-5266
▁cu	-5267
▁gh	-5268
ahal	-5269
anam	-5270
ardi	-5271
iaan	-5272
tasi	-5273
▁pec	-5274
▁yud	-5275
amana	-5276
intis	-5277
tanyo	-5278
uduki	-5279
▁1956	-5280
▁asoy	-5281
▁gamp	-5282
▁kala	-5283
▁kito	-5284
▁maju	-5285
▁shah	-5286
▁syam	-5287
agiang	-5288
ekaran	-5289
ikmati	-5290
▁angin	-5291
▁asasi	-5292
▁david	-5293
▁group	-5294
▁lawan	-5295
▁muara	-5296
▁pasir	-5297
▁titik	-5298
ilangan	-5299
unjukan	-5300
unjungi	-5301
unungan	-5302
▁dagang	-5303
▁jatuah	-5304
▁pabrik	-5305
▁resort	-5306
▁urutan	-5307
aklukkan	-5308
▁hiburan	-5309
▁kecuali	-5310
▁konflik	-5311
▁majelis	-5312
▁mambaco	-5313
▁membuka	-5314
▁pemilik	-5315
▁penjara	-5316
▁tautamo	-5317
▁terbagi	-5318
asifikasi	-5319
▁berdarah	-5320
▁mengatur	-5321
▁pangeran	-5322
▁pendapat	-5323
▁tarakhir	-5324
▁dipertuan	-5325
▁patamonyo	-5326
▁sastrawan	-5327
▁dikonsumsi	-5328
▁mandirikan	-5329
▁penjajahan	-5330
▁menerbitkan	-5331
▁pelestarian	-5332
ex	-5333
je	-5334
ru	-5335
sb	-5336
aut	-5337
bud	-5338
can	-5339
een	-5340
ger	-5341
jaz	-5342
onc	-5343
oro	-5344
▁44	-5345
ahit	-5346
enza	-5347
erai	-5348
uaan	-5349
upai	-5350
▁150	-5351
▁hip	-5352
▁jul	-5353
▁ran	-5354
ineal	-5355
ister	-5356
rizal	-5357
▁1968	-5358
▁1994	-5359
▁aksi	-5360
▁bati	-5361
▁kart	-5362
▁nias	-5363
▁poly	-5364
▁regi	-5365
▁sant	-5366
▁suko	-5367
▁tiok	-5368
anggan	-5369
ayakan	-5370
intaan	-5371
itamus	-5372
▁ambon	-5373
▁babak	-5374
▁bakal	-5375
▁barek	-5376
▁binti	-5377
▁cacia	-5378
▁hamka	-5379
▁istim	-5380
▁jatuh	-5381
▁komet	-5382
▁komod	-5383
▁letak	-5384
▁manih	-5385
▁menit	-5386
▁nenek	-5387
engganu	-5388
isahkan	-5389
▁diatur	-5390
▁dimana	-5391
▁faktor	-5392
▁hilang	-5393
▁ladang	-5394
▁otonom	-5395
▁pantun	-5396
▁rangka	-5397
▁salalu	-5398
▁segera	-5399
ustakaan	-5400
▁asisten	-5401
▁baruang	-5402
▁dagiang	-5403
▁harapan	-5404
▁kalinyo	-5405
▁mandiri	-5406
▁migrasi	-5407
▁syariah	-5408
▁berperan	-5409
▁gangguan	-5410
▁internet	-5411
▁jambatan	-5412
▁paguruan	-5413
▁berpindah	-5414
▁influenza	-5415
▁kebutuhan	-5416
▁lingkaran	-5417
▁neoitamus	-5418
▁dijalankan	-5419
▁sekitarnya	-5420
▁silinduang	-5421
▁terengganu	-5422
▁elektromagn	-5423
75	-5424
90	-5425
ox	-5426
ahi	-5427
bul	-5428
cin	-5429
ver	-5430
▁59	-5431
▁oc	-5432
ster	-5433
ware	-5434
▁amf	-5435
▁asl	-5436
▁eko	-5437
▁gig	-5438
▁jen	-5439
▁kot	-5440
▁naf	-5441
▁nah	-5442
▁tuk	-5443
▁way	-5444
inisi	-5445
usuku	-5446
▁1952	-5447
▁1976	-5448
▁1986	-5449
▁club	-5450
▁jugo	-5451
▁lado	-5452
▁phil	-5453
▁sini	-5454
angani	-5455
iriman	-5456
sistem	-5457
▁1999,	-5458
▁batas	-5459
▁centr	-5460
▁darat	-5461
▁dusun	-5462
▁kaman	-5463
▁kanal	-5464
▁mamar	-5465
▁mekan	-5466
▁parah	-5467
▁sunni	-5468
▁tingg	-5469
alajari	-5470
▁adapun	-5471
▁asiang	-5472
▁daging	-5473
▁dijual	-5474
▁dijump	-5475
▁kareta	-5476
▁kompas	-5477
▁lelaki	-5478
▁master	-5479
▁pembel	-5480
▁pengan	-5481
▁planet	-5482
▁rancak	-5483
▁sagalo	-5484
▁tengku	-5485
▁zainal	-5486
▁disusun	-5487
▁geologi	-5488
▁inggrih	-5489
▁katolik	-5490
▁palukih	-5491
▁peserta	-5492
▁sepuluh	-5493
▁bafungsi	-5494
▁diterima	-5495
▁karyanya	-5496
▁komponen	-5497
▁manjabek	-5498
▁maskipun	-5499
▁pambantu	-5500
▁panglima	-5501
▁penguasa	-5502
▁bagaimana	-5503
▁direktorat	-5504
▁ketinggian	-5505
▁dipakirokan	-5506
▁pembentukan	-5507
76	-5508
ll	-5509
akh	-5510
far	-5511
how	-5512
iii	-5513
iss	-5514
ity	-5515
pen	-5516
▁pa	-5517
▁xi	-5518
abih	-5519
aksa	-5520
ejah	-5521
esia	-5522
inda	-5523
unta	-5524
usio	-5525
▁arg	-5526
▁gug	-5527
▁jav	-5528
▁kay	-5529
▁lpp	-5530
▁muf	-5531
▁pip	-5532
▁qur	-5533
▁rob	-5534
▁til	-5535
angsa	-5536
erita	-5537
orasi	-5538
▁1989	-5539
▁budi	-5540
▁huss	-5541
▁kais	-5542
▁karo	-5543
▁kaya	-5544
▁maks	-5545
▁nona	-5546
▁puan	-5547
▁soci	-5548
▁tadi	-5549
▁tema	-5550
angkit	-5551
angunj	-5552
asanyo	-5553
eodera	-5554
▁adiak	-5555
▁adnan	-5556
▁aspek	-5557
▁babah	-5558
▁games	-5559
▁indah	-5560
▁jawab	-5561
▁kakao	-5562
▁karno	-5563
▁katan	-5564
▁minik	-5565
▁murah	-5566
▁naiak	-5567
▁pakan	-5568
▁pesta	-5569
▁pungg	-5570
▁rabab	-5571
▁salat	-5572
▁siang	-5573
▁steff	-5574
▁tapek	-5575
▁telur	-5576
onegoro	-5577
▁betina	-5578
▁coklat	-5579
▁karyak	-5580
▁manamp	-5581
▁minggu	-5582
▁saikua	-5583
▁tambus	-5584
▁united	-5585
alasaian	-5586
ercayaan	-5587
rilineal	-5588
▁berpend	-5589
▁bertemu	-5590
▁dominan	-5591
▁hussein	-5592
▁saudara	-5593
▁tahadok	-5594
▁telepon	-5595
▁terlalu	-5596
▁balakang	-5597
▁diambiak	-5598
▁federasi	-5599
▁istimewa	-5600
▁keamanan	-5601
▁komandan	-5602
▁memenuhi	-5603
▁oreodera	-5604
▁siguntur	-5605
▁tapeknyo	-5606
▁terbatas	-5607
ejahteraan	-5608
▁bengkalis	-5609
▁berlokasi	-5610
▁champions	-5611
▁frekuensi	-5612
▁kakuasaan	-5613
▁komputasi	-5614
▁legislatif	-5615
▁pegunungan	-5616
▁mamanangkan	-5617
▁manunjuakan	-5618
▁pagaruyuang	-5619
▁menyelesaikan	-5620
60	-5621
63	-5622
lm	-5623
pd	-5624
.34	-5625
20,	-5626
bok	-5627
hoy	-5628
ram	-5629
sin	-5630
uth	-5631
▁3,	-5632
▁7,	-5633
▁95	-5634
▁pm	-5635
arya	-5636
imen	-5637
masi	-5638
ohid	-5639
rist	-5640
urah	-5641
▁175	-5642
▁aka	-5643
▁cel	-5644
▁jum	-5645
abiah	-5646
andia	-5647
empur	-5648
ganya	-5649
iling	-5650
isian	-5651
unggu	-5652
▁1983	-5653
▁1988	-5654
▁adik	-5655
▁besi	-5656
▁cour	-5657
▁foto	-5658
▁girl	-5659
▁hong	-5660
▁katu	-5661
▁kuah	-5662
▁lest	-5663
▁ling	-5664
▁mara	-5665
▁pinj	-5666
▁purn	-5667
▁tamu	-5668
awaran	-5669
hoyono	-5670
olahan	-5671
sipkan	-5672
▁acaro	-5673
▁balik	-5674
▁lepas	-5675
▁manip	-5676
▁multi	-5677
▁sakal	-5678
▁tarab	-5679
asyarak	-5680
erangan	-5681
▁apabil	-5682
▁bungsu	-5683
▁dimano	-5684
▁haluan	-5685
▁letnan	-5686
▁manyar	-5687
▁tepung	-5688
▁terjun	-5689
▁tubuah	-5690
▁beruang	-5691
▁kompany	-5692
▁kuranji	-5693
▁otonomi	-5694
▁pegawai	-5695
▁sesuatu	-5696
▁tatantu	-5697
▁asosiasi	-5698
▁bapindah	-5699
▁kumpulan	-5700
▁melayani	-5701
▁sukusuku	-5702
▁disingkat	-5703
▁geografis	-5704
▁sijunjung	-5705
▁yudhoyono	-5706
▁dipakiroan	-5707
▁pergerakan	-5708
▁kepercayaan	-5709
▁diselenggarakan	-5710
88	-5711
ks	-5712
ael	-5713
dam	-5714
kul	-5715
mau	-5716
omi	-5717
▁36	-5718
▁zi	-5719
bour	-5720
enop	-5721
idon	-5722
ilen	-5723
itor	-5724
ogan	-5725
ukim	-5726
usul	-5727
utra	-5728
▁arm	-5729
▁emb	-5730
▁fie	-5731
▁jas	-5732
▁kri	-5733
▁mos	-5734
▁tir	-5735
ajara	-5736
akili	-5737
board	-5738
indak	-5739
umbai	-5740
▁1971	-5741
▁1972	-5742
▁bada	-5743
▁dima	-5744
▁hard	-5745
▁iran	-5746
▁muti	-5747
▁sulu	-5748
antuan	-5749
apahit	-5750
ations	-5751
isinya	-5752
uransi	-5753
▁2017,	-5754
▁2018.	-5755
▁atlet	-5756
▁badak	-5757
▁curah	-5758
▁jelas	-5759
▁kapit	-5760
▁latak	-5761
▁lauje	-5762
▁manat	-5763
▁mandi	-5764
▁panab	-5765
▁sulai	-5766
▁suluk	-5767
▁swiss	-5768
▁tamil	-5769
▁tjong	-5770
▁touré	-5771
▁wakia	-5772
▁wales	-5773
macidon	-5774
ormatan	-5775
▁bamulo	-5776
▁dinyat	-5777
▁ekonom	-5778
▁manang	-5779
▁normal	-5780
▁ribery	-5781
▁ritual	-5782
▁tafsir	-5783
▁takana	-5784
engaruhi	-5785
ikasikan	-5786
▁bajudul	-5787
▁dimasak	-5788
▁diploma	-5789
▁gonjong	-5790
▁harimau	-5791
▁lengkap	-5792
▁pelatih	-5793
▁sahabat	-5794
▁senyawa	-5795
▁terbuka	-5796
▁terkait	-5797
▁bajumlah	-5798
▁balaenop	-5799
▁kesatuan	-5800
▁mewakili	-5801
▁panguaso	-5802
▁perilaku	-5803
▁regional	-5804
▁sambilan	-5805
▁arkeologi	-5806
▁berbahasa	-5807
▁kaputusan	-5808
▁kecepatan	-5809
▁khususnyo	-5810
▁majapahit	-5811
▁mancaliak	-5812
▁memainkan	-5813
▁panggilan	-5814
▁pedalaman	-5815
▁berdirinya	-5816
▁dihasilkan	-5817
▁manjadikan	-5818
▁utsmaniyah	-5819
▁dragmacidon	-5820
▁guadalajara	-5821
▁kamungkinan	-5822
▁peningkatan	-5823
▁pembelajaran	-5824
▁administratif	-5825
▁elektromagnetik	-5826
85	-5827
cl	-5828
yr	-5829
zl	-5830
.13	-5831
erk	-5832
jan	-5833
ogo	-5834
unk	-5835
win	-5836
▁av	-5837
▁bb	-5838
▁fe	-5839
adak	-5840
alib	-5841
amac	-5842
aweh	-5843
emar	-5844
esis	-5845
inea	-5846
itat	-5847
okal	-5848
yani	-5849
▁120	-5850
▁aks	-5851
▁anj	-5852
▁fik	-5853
▁gul	-5854
▁jab	-5855
▁kus	-5856
▁mpr	-5857
▁omb	-5858
ayasa	-5859
edral	-5860
ensif	-5861
enter	-5862
tansi	-5863
tokoh	-5864
uekan	-5865
▁1955	-5866
▁1996	-5867
▁arat	-5868
▁bend	-5869
▁dihi	-5870
▁plat	-5871
▁roti	-5872
▁soph	-5873
▁ular	-5874
ampung	-5875
audara	-5876
isinyo	-5877
▁bujur	-5878
▁butuh	-5879
▁fokus	-5880
▁hebat	-5881
▁jalal	-5882
▁kelok	-5883
▁lagul	-5884
▁megal	-5885
▁merup	-5886
▁metal	-5887
▁rasul	-5888
▁saleh	-5889
▁sinar	-5890
▁talua	-5891
aklukan	-5892
awakili	-5893
ohidrat	-5894
panjang	-5895
tivitas	-5896
▁baburu	-5897
▁banjir	-5898
▁buliah	-5899
▁cahaya	-5900
▁courto	-5901
▁dekade	-5902
▁gawang	-5903
▁jamaah	-5904
▁kareno	-5905
▁lawang	-5906
▁mancan	-5907
▁menyer	-5908
▁purbak	-5909
▁rahman	-5910
▁tarian	-5911
jemahkan	-5912
▁dinilai	-5913
▁dipilih	-5914
▁keempat	-5915
▁kontrol	-5916
▁memperk	-5917
▁randang	-5918
▁sainggo	-5919
▁serambi	-5920
▁singgal	-5921
▁variasi	-5922
▁karyanyo	-5923
▁menyebar	-5924
▁padagang	-5925
▁panyanyi	-5926
▁pengajar	-5927
▁renovasi	-5928
▁semangat	-5929
▁berjumlah	-5930
▁dikatahui	-5931
▁dipandang	-5932
▁instruksi	-5933
▁komersial	-5934
▁padalaman	-5935
▁palajaran	-5936
▁tangerang	-5937
asyarakatan	-5938
▁didominasi	-5939
▁menganggap	-5940
▁pertahanan	-5941
▁proklamasi	-5942
▁karbohidrat	-5943
▁menimbulkan	-5944
▁mangambangkan	-5945
▁penyelenggaraan	-5946
27	-5947
49	-5948
sm	-5949
yd	-5950
ayd	-5951
buk	-5952
ede	-5953
gue	-5954
idi	-5955
ins	-5956
len	-5957
nes	-5958
yok	-5959
▁ca	-5960
▁fa	-5961
▁sn	-5962
adar	-5963
alog	-5964
aras	-5965
atis	-5966
ayai	-5967
ekko	-5968
ikek	-5969
olos	-5970
sial	-5971
sium	-5972
tris	-5973
ukai	-5974
unai	-5975
yosh	-5976
▁aru	-5977
▁fas	-5978
▁feb	-5979
▁hig	-5980
▁kag	-5981
▁riw	-5982
▁saw	-5983
▁uii	-5984
▁wik	-5985
afaik	-5986
antes	-5987
inaan	-5988
itung	-5989
yacet	-5990
▁adip	-5991
▁anim	-5992
▁cucu	-5993
▁diam	-5994
▁dini	-5995
▁dong	-5996
▁elok	-5997
▁fisi	-5998
▁koko	-5999
▁maha	-6000
▁ramb	-6001
▁sala	-6002
▁smpp	-6003
▁toko	-6004
▁trib	-6005
adinya	-6006
ebunan	-6007
ugerah	-6008
▁aljaz	-6009
▁basis	-6010
▁beton	-6011
▁budid	-6012
▁darul	-6013
▁gekko	-6014
▁hyang	-6015
▁iklim	-6016
▁jaleh	-6017
▁kadar	-6018
▁kapam	-6019
▁kedah	-6020
▁kursi	-6021
▁ligue	-6022
▁manam	-6023
▁meman	-6024
▁merek	-6025
▁pengk	-6026
▁punya	-6027
▁sulik	-6028
▁taram	-6029
▁timua	-6030
awarkan	-6031
ebaskan	-6032
elompok	-6033
iliangi	-6034
unjuang	-6035
▁agresi	-6036
▁aktris	-6037
▁altern	-6038
▁audisi	-6039
▁bapand	-6040
▁berkeb	-6041
▁dibawa	-6042
▁ikolah	-6043
▁klasik	-6044
▁makian	-6045
▁makmur	-6046
▁medali	-6047
▁nampak	-6048
▁nobita	-6049
▁panuah	-6050
▁susilo	-6051
angaruah	-6052
epakatan	-6053
▁badarah	-6054
▁dapunta	-6055
▁jajahan	-6056
▁lintang	-6057
▁membaca	-6058
▁pensiun	-6059
▁rajanya	-6060
▁ratusan	-6061
▁saluang	-6062
▁seiring	-6063
▁tarekat	-6064
yacetilen	-6065
▁anggaran	-6066
▁asuransi	-6067
▁ditarimo	-6068
▁ditunjuk	-6069
▁jurnalis	-6070
▁kajadian	-6071
▁mawakili	-6072
▁megawati	-6073
▁patamuan	-6074
▁perairan	-6075
▁tapanuli	-6076
▁ekosistem	-6077
▁kariernyo	-6078
▁peralatan	-6079
▁purbakala	-6080
▁alternatif	-6081
▁dilengkapi	-6082
▁konstruksi	-6083
▁penyebaran	-6084
▁seharihari	-6085
▁ditambahkan	-6086
▁mengalahkan	-6087
▁pelaksanaan	-6088
▁dilaksanakan	-6089
▁polyacetilen	-6090
▁menggambarkan	-6091
ph	-6092
isa	-6093
jak	-6094
lar	-6095
mud	-6096
▁54	-6097
▁wh	-6098
atau	-6099
inar	-6100
oner	-6101
yaan	-6102
zhab	-6103
▁ahl	-6104
▁bos	-6105
▁hum	-6106
▁obs	-6107
▁ret	-6108
etron	-6109
ilasi	-6110
inkan	-6111
iraan	-6112
uliah	-6113
▁dita	-6114
▁ekor	-6115
▁gram	-6116
▁king	-6117
▁pagi	-6118
▁paku	-6119
▁reli	-6120
▁shir	-6121
anggok	-6122
endang	-6123
esmian	-6124
iasaan	-6125
irinyo	-6126
onesia	-6127
pirasi	-6128
ronica	-6129
▁1996,	-6130
▁aneka	-6131
▁bubur	-6132
▁grand	-6133
▁johan	-6134
▁kasal	-6135
▁makna	-6136
▁pagun	-6137
▁pasan	-6138
▁petak	-6139
▁premi	-6140
▁sebag	-6141
pranala	-6142
▁batino	-6143
▁darlis	-6144
▁golkar	-6145
▁guinea	-6146
▁maksud	-6147
▁maraso	-6148
▁moyang	-6149
▁ribuan	-6150
▁sumbar	-6151
▁tabang	-6152
▁tjokro	-6153
atangani	-6154
▁dilihat	-6155
▁dirilis	-6156
▁efektif	-6157
▁ekstrak	-6158
▁gagasan	-6159
▁kaampek	-6160
▁kentang	-6161
▁manjago	-6162
▁meminta	-6163
▁mengund	-6164
▁songket	-6165
▁definisi	-6166
▁disimpan	-6167
▁kaluargo	-6168
▁memasuki	-6169
▁sinetron	-6170
▁dikatakan	-6171
▁dinamokan	-6172
▁galombang	-6173
▁mangikuti	-6174
▁pajanjian	-6175
▁bersaudara	-6176
▁dimasukkan	-6177
▁diproduksi	-6178
▁kesempatan	-6179
▁menamatkan	-6180
▁penerbitan	-6181
▁perkawinan	-6182
▁singgalang	-6183
▁sophronica	-6184
▁tokohtokoh	-6185
▁dikelilingi	-6186
▁kesepakatan	-6187
▁pendidikannya	-6188
62	-6189
bn	-6190
by	-6191
mk	-6192
ou	-6193
pt	-6194
tm	-6195
▁ب	-6196
.15	-6197
201	-6198
ear	-6199
lem	-6200
nie	-6201
sel	-6202
tec	-6203
wal	-6204
yas	-6205
zia	-6206
▁65	-6207
▁fo	-6208
▁kk	-6209
aisy	-6210
arja	-6211
arki	-6212
elai	-6213
elok	-6214
emik	-6215
ingh	-6216
ower	-6217
samo	-6218
ulak	-6219
wana	-6220
▁400	-6221
▁cub	-6222
▁cup	-6223
▁dll	-6224
▁iny	-6225
▁ion	-6226
▁jaz	-6227
▁kbk	-6228
▁may	-6229
▁mub	-6230
▁tik	-6231
▁tol	-6232
▁ugm	-6233
▁waq	-6234
▁won	-6235
abeda	-6236
andiw	-6237
asari	-6238
ayyah	-6239
ciang	-6240
elsea	-6241
ewati	-6242
ikbud	-6243
intak	-6244
riang	-6245
trans	-6246
ultur	-6247
▁1939	-6248
▁1957	-6249
▁1962	-6250
▁anti	-6251
▁arif	-6252
▁dhow	-6253
▁eksp	-6254
▁glen	-6255
▁indo	-6256
▁itam	-6257
▁ment	-6258
▁mich	-6259
▁mund	-6260
▁radi	-6261
▁soed	-6262
▁usul	-6263
adaran	-6264
amaian	-6265
angaik	-6266
angkau	-6267
barang	-6268
ikuler	-6269
umpang	-6270
▁2002,	-6271
▁anggo	-6272
▁belas	-6273
▁diisi	-6274
▁dijua	-6275
▁dijul	-6276
▁dimin	-6277
▁dinob	-6278
▁dituj	-6279
▁forum	-6280
▁hasan	-6281
▁jayan	-6282
▁ketan	-6283
▁nurul	-6284
▁pakai	-6285
▁pesan	-6286
▁skrip	-6287
▁tertu	-6288
▁turut	-6289
▁walau	-6290
ainilai	-6291
indungi	-6292
ontakan	-6293
variasi	-6294
▁barisi	-6295
▁batuan	-6296
▁djamil	-6297
▁emirat	-6298
▁latiah	-6299
▁luluih	-6300
▁markas	-6301
▁menand	-6302
▁merasa	-6303
▁persis	-6304
▁sayang	-6305
▁taadok	-6306
▁talang	-6307
▁tamaik	-6308
▁taring	-6309
▁tukang	-6310
angkatan	-6311
▁biologi	-6312
▁chelsea	-6313
▁kantang	-6314
▁laporan	-6315
▁mochtar	-6316
▁penyair	-6317
▁raharja	-6318
▁tahunan	-6319
▁dimaksud	-6320
▁dipiliah	-6321
▁katedral	-6322
▁mahathir	-6323
▁produser	-6324
▁sulaiman	-6325
angunjuang	-6326
▁gelombang	-6327
▁menduduki	-6328
▁menempati	-6329
▁penampang	-6330
▁diponegoro	-6331
▁nilainilai	-6332
▁perkebunan	-6333
▁berpengaruh	-6334
▁dikembangkan	-6335
▁menghubungkan	-6336
,1	-6337
04	-6338
77	-6339
nu	-6340
ps	-6341
arg	-6342
bek	-6343
edd	-6344
wil	-6345
▁38	-6346
▁48	-6347
▁du	-6348
▁hy	-6349
2009	-6350
2011	-6351
ague	-6352
apak	-6353
ario	-6354
band	-6355
etan	-6356
jata	-6357
mano	-6358
oper	-6359
saat	-6360
ulah	-6361
wakm	-6362
▁202	-6363
▁jag	-6364
▁pwi	-6365
▁ros	-6366
▁wid	-6367
ayaik	-6368
orium	-6369
osofi	-6370
uhnya	-6371
▁1966	-6372
▁anat	-6373
▁barc	-6374
▁hamb	-6375
▁keag	-6376
▁magn	-6377
▁otak	-6378
▁putr	-6379
▁rute	-6380
▁tepi	-6381
ekanan	-6382
ekonom	-6383
ugaran	-6384
▁1979,	-6385
▁ampia	-6386
▁baleh	-6387
▁citar	-6388
▁hadis	-6389
▁layak	-6390
▁level	-6391
▁muaro	-6392
▁pakar	-6393
▁pamil	-6394
▁perse	-6395
▁rimbo	-6396
▁rutin	-6397
▁teman	-6398
▁upaya	-6399
▁wahid	-6400
aluakan	-6401
aminoto	-6402
arapkan	-6403
ebarkan	-6404
elaskan	-6405
impanan	-6406
ingguan	-6407
▁bangku	-6408
▁cincin	-6409
▁dihuni	-6410
▁diperl	-6411
▁jiwakm	-6412
▁league	-6413
▁manand	-6414
▁manimb	-6415
▁mazhab	-6416
▁pinang	-6417
▁pondok	-6418
apasitas	-6419
inginkan	-6420
▁caniago	-6421
▁infeksi	-6422
▁jantung	-6423
▁lambang	-6424
▁mulyani	-6425
▁nagaran	-6426
▁premier	-6427
▁tambang	-6428
ekonomian	-6429
▁aratinyo	-6430
▁batujuan	-6431
▁beasiswa	-6432
▁cadangan	-6433
▁courtois	-6434
▁karambia	-6435
▁kauangan	-6436
▁menempuh	-6437
▁tersedia	-6438
▁babatehan	-6439
▁disingkek	-6440
▁laksamana	-6441
▁manunjuak	-6442
▁manyatoan	-6443
▁kabaradoan	-6444
▁panampilan	-6445
▁panjajahan	-6446
▁barikuiknyo	-6447
▁panghargaan	-6448
▁sebagaimana	-6449
▁berkebangsaan	-6450
▁diterjemahkan	-6451
▁kesejahteraan	-6452
39	-6453
71	-6454
ff	-6455
oi	-6456
.00	-6457
.45	-6458
age	-6459
eto	-6460
ley	-6461
own	-6462
roe	-6463
sen	-6464
sid	-6465
▁61	-6466
▁pe	-6467
ance	-6468
antr	-6469
arno	-6470
ford	-6471
kand	-6472
omas	-6473
umah	-6474
wood	-6475
▁agr	-6476
▁fav	-6477
▁fem	-6478
▁gej	-6479
▁haz	-6480
▁keg	-6481
▁las	-6482
▁teg	-6483
▁tid	-6484
▁win	-6485
aftar	-6486
agamo	-6487
agiri	-6488
alisi	-6489
atuih	-6490
eling	-6491
elona	-6492
ering	-6493
ingek	-6494
ogiri	-6495
ology	-6496
onald	-6497
organ	-6498
ropol	-6499
ubung	-6500
utaan	-6501
waktu	-6502
▁1900	-6503
▁1930	-6504
▁1953	-6505
▁apak	-6506
▁best	-6507
▁brit	-6508
▁dayo	-6509
▁flor	-6510
▁idul	-6511
▁kerj	-6512
▁pard	-6513
▁tahu	-6514
▁umno	-6515
adinyo	-6516
anggar	-6517
awiyah	-6518
efinis	-6519
erahan	-6520
etapan	-6521
hantes	-6522
ladesh	-6523
▁bulek	-6524
▁catur	-6525
▁chibi	-6526
▁cipta	-6527
▁dieks	-6528
▁djauh	-6529
▁fitri	-6530
▁garam	-6531
▁induk	-6532
▁juaro	-6533
▁masin	-6534
▁matan	-6535
▁musta	-6536
▁paras	-6537
▁sayap	-6538
▁silek	-6539
▁tajun	-6540
▁vokal	-6541
agarian	-6542
egaraan	-6543
irimkan	-6544
iskinan	-6545
itungan	-6546
▁badiri	-6547
▁burung	-6548
▁dibaok	-6549
▁dicamp	-6550
▁djamal	-6551
▁jacobs	-6552
▁kajian	-6553
▁kasado	-6554
▁kritik	-6555
▁natuna	-6556
▁penjel	-6557
▁steffy	-6558
▁suriah	-6559
▁wafaik	-6560
andangan	-6561
asarjana	-6562
▁austria	-6563
▁bagindo	-6564
▁habitat	-6565
▁maadoan	-6566
▁mataram	-6567
▁protein	-6568
▁quraisy	-6569
▁situasi	-6570
▁babahaso	-6571
▁berusaha	-6572
▁diameter	-6573
▁ditandai	-6574
▁karangan	-6575
▁maharaja	-6576
▁mengubah	-6577
▁metropol	-6578
▁mingguan	-6579
▁national	-6580
▁sairiang	-6581
▁sarangan	-6582
▁suntiang	-6583
▁barcelona	-6584
▁djauharah	-6585
▁kacamatan	-6586
▁kandungan	-6587
▁pemekaran	-6588
▁peradaban	-6589
▁bangladesh	-6590
▁kebangsaan	-6591
▁menetapkan	-6592
▁penampilan	-6593
▁bertanggung	-6594
▁klasifikasi	-6595
▁mampalajari	-6596
▁menciptakan	-6597
▁kapamimpinan	-6598
▁nagaranagara	-6599
66	-6600
ue	-6601
aha	-6602
geh	-6603
hop	-6604
oli	-6605
▁34	-6606
▁nu	-6607
▁rh	-6608
▁uh	-6609
agak	-6610
ahmi	-6611
aton	-6612
cara	-6613
erat	-6614
fiah	-6615
itif	-6616
lian	-6617
ohar	-6618
ondo	-6619
osil	-6620
rani	-6621
tico	-6622
▁129	-6623
▁adi	-6624
▁awa	-6625
▁bor	-6626
▁jin	-6627
▁sih	-6628
▁wib	-6629
asiah	-6630
emuka	-6631
▁alas	-6632
▁cand	-6633
▁geod	-6634
▁hany	-6635
▁pern	-6636
▁ribu	-6637
▁sanj	-6638
▁sate	-6639
▁soft	-6640
aikkan	-6641
entina	-6642
iriang	-6643
urusan	-6644
▁angel	-6645
▁bahar	-6646
▁bateh	-6647
▁bertu	-6648
▁china	-6649
▁cocok	-6650
▁efisi	-6651
▁ganda	-6652
▁lolos	-6653
▁resep	-6654
▁silva	-6655
▁subur	-6656
▁yusuf	-6657
erapkan	-6658
▁achmad	-6659
▁aksara	-6660
▁amfibi	-6661
▁baubah	-6662
▁cender	-6663
▁christ	-6664
▁infras	-6665
▁member	-6666
▁profes	-6667
▁serupa	-6668
▁sinyal	-6669
▁ukrain	-6670
▁warung	-6671
abungkan	-6672
angguang	-6673
indungan	-6674
▁apabila	-6675
▁beragam	-6676
▁dihiasi	-6677
▁garakan	-6678
▁julukan	-6679
▁lukisan	-6680
▁menolak	-6681
▁mulanya	-6682
▁pilihan	-6683
▁praktik	-6684
▁salapan	-6685
▁sangkek	-6686
▁saroman	-6687
▁science	-6688
▁tabateh	-6689
▁bertahan	-6690
▁dicaliak	-6691
▁dijumpai	-6692
▁dipacayo	-6693
▁filosofi	-6694
▁membahas	-6695
▁satangah	-6696
▁terlebih	-6697
▁badirinyo	-6698
▁contohnyo	-6699
▁manantang	-6700
▁pangkalan	-6701
▁terkemuka	-6702
▁bantuaknyo	-6703
▁menyerupai	-6704
▁perbatasan	-6705
▁sebagainya	-6706
alanggarokan	-6707
▁menyebutkan	-6708
▁pagunuangan	-6709
▁menghabiskan	-6710
▁pascasarjana	-6711
▁mempertahankan	-6712
34	-6713
mu	-6714
nc	-6715
ss	-6716
19,	-6717
ake	-6718
bel	-6719
ide	-6720
inf	-6721
mer	-6722
pus	-6723
qih	-6724
tum	-6725
vin	-6726
waq	-6727
▁41	-6728
ekar	-6729
elan	-6730
etes	-6731
izou	-6732
oksi	-6733
omed	-6734
rice	-6735
ukti	-6736
▁184	-6737
▁250	-6738
▁bij	-6739
▁bum	-6740
▁jej	-6741
▁not	-6742
▁pay	-6743
▁pts	-6744
▁ulu	-6745
▁vic	-6746
▁von	-6747
acaro	-6748
adiri	-6749
aduan	-6750
agoan	-6751
akaik	-6752
chool	-6753
iknyo	-6754
klusi	-6755
ornia	-6756
osamo	-6757
roses	-6758
usnya	-6759
velop	-6760
vensi	-6761
▁1920	-6762
▁1940	-6763
▁1975	-6764
▁alex	-6765
▁ambo	-6766
▁anyo	-6767
▁coun	-6768
▁good	-6769
▁impl	-6770
▁izin	-6771
▁jose	-6772
▁kang	-6773
▁kida	-6774
▁kris	-6775
▁kuba	-6776
▁leba	-6777
▁maik	-6778
▁mark	-6779
▁ramp	-6780
▁ruso	-6781
▁seks	-6782
▁sjah	-6783
▁star	-6784
▁suka	-6785
▁vert	-6786
adapan	-6787
asakan	-6788
ediaan	-6789
esliga	-6790
inanah	-6791
isahan	-6792
umahan	-6793
▁abang	-6794
▁angko	-6795
▁asian	-6796
▁batip	-6797
▁bukub	-6798
▁calif	-6799
▁cinto	-6800
▁cocos	-6801
▁ditur	-6802
▁fiqih	-6803
▁genom	-6804
▁gurun	-6805
▁kapur	-6806
▁kezia	-6807
▁kokoa	-6808
▁kolam	-6809
▁lihat	-6810
▁nangg	-6811
▁parti	-6812
▁quran	-6813
▁royal	-6814
▁setia	-6815
▁tuntu	-6816
▁usman	-6817
▁zizou	-6818
olisian	-6819
siangan	-6820
▁benang	-6821
▁cahayo	-6822
▁glenea	-6823
▁hijrah	-6824
▁lebong	-6825
▁mesoam	-6826
▁mother	-6827
▁piagam	-6828
▁rohana	-6829
▁sambil	-6830
▁sepeda	-6831
▁varian	-6832
ahabatan	-6833
urikuler	-6834
▁anaknya	-6835
▁anaknyo	-6836
▁arsitek	-6837
▁bandaro	-6838
▁baranti	-6839
▁batahan	-6840
▁berburu	-6841
▁berlaku	-6842
▁bersatu	-6843
▁beserta	-6844
▁diawali	-6845
▁favorit	-6846
▁georgia	-6847
▁kalsium	-6848
▁kinanah	-6849
▁koleksi	-6850
▁malaria	-6851
▁mencoba	-6852
▁mohamad	-6853
▁putaran	-6854
▁saliang	-6855
▁tasadio	-6856
▁umayyah	-6857
▁aljazair	-6858
▁bergerak	-6859
▁berkuasa	-6860
▁dikelola	-6861
▁ditopang	-6862
▁kasenian	-6863
▁lagulagu	-6864
▁matohari	-6865
▁patanian	-6866
▁penonton	-6867
▁rekayasa	-6868
▁sampiang	-6869
▁tilatang	-6870
efinisikan	-6871
▁dipanggil	-6872
▁melainkan	-6873
▁pemikiran	-6874
▁persiapan	-6875
▁rancangan	-6876
▁bundesliga	-6877
▁california	-6878
▁diarsipkan	-6879
▁dilahirkan	-6880
▁katinggian	-6881
▁mambueknyo	-6882
▁mamparoleh	-6883
▁melibatkan	-6884
▁membuatnya	-6885
▁pengkajian	-6886
▁dikeluarkan	-6887
▁matrilineal	-6888
▁mesoamerika	-6889
▁barangbarang	-6890
▁manyalasaian	-6891
▁perpustakaan	-6892
▁ekstrakurikuler	-6893
05	-6894
69	-6895
74	-6896
bt	-6897
sk	-6898
ye	-6899
▁م	-6900
erg	-6901
gel	-6902
ias	-6903
iat	-6904
ien	-6905
mun	-6906
par	-6907
sua	-6908
ven	-6909
weg	-6910
▁1.	-6911
▁ic	-6912
abah	-6913
amis	-6914
aret	-6915
eldi	-6916
esus	-6917
iner	-6918
jang	-6919
kuit	-6920
uahi	-6921
ukoi	-6922
urun	-6923
ward	-6924
▁2,5	-6925
▁bug	-6926
▁emp	-6927
▁hit	-6928
▁hlm	-6929
▁kis	-6930
▁kuc	-6931
▁lsm	-6932
▁puj	-6933
▁sid	-6934
▁wir	-6935
akhia	-6936
entar	-6937
eptyp	-6938
intar	-6939
tatus	-6940
▁1954	-6941
▁bini	-6942
▁cerd	-6943
▁hanc	-6944
▁istr	-6945
▁meri	-6946
▁myan	-6947
▁parp	-6948
▁sato	-6949
▁smpn	-6950
▁term	-6951
enjang	-6952
ontrol	-6953
uaikan	-6954
uaroan	-6955
ubuang	-6956
ulihan	-6957
uruang	-6958
▁1949,	-6959
▁1978,	-6960
▁2000,	-6961
▁2003,	-6962
▁2018,	-6963
▁abdur	-6964
▁dapur	-6965
▁dibub	-6966
▁dihid	-6967
▁eleph	-6968
▁gampo	-6969
▁gusti	-6970
▁herzl	-6971
▁jalua	-6972
▁jangk	-6973
▁keker	-6974
▁kudus	-6975
▁kurun	-6976
▁manab	-6977
▁rapat	-6978
▁sentr	-6979
▁skuat	-6980
▁surya	-6981
▁tanda	-6982
erjakan	-6983
ingkali	-6984
urangan	-6985
▁babedo	-6986
▁bunker	-6987
▁burhan	-6988
▁hendri	-6989
▁kaisar	-6990
▁maroko	-6991
▁olahan	-6992
▁perund	-6993
▁sakato	-6994
▁sidang	-6995
▁siriah	-6996
▁sjarif	-6997
▁bakteri	-6998
▁barasil	-6999
▁genting	-7000
▁kuliner	-7001
▁mahkota	-7002
▁mamasak	-7003
▁manusio	-7004
▁memasak	-7005
▁myanmar	-7006
▁organik	-7007
▁sarikat	-7008
▁satunya	-7009
▁seleksi	-7010
▁beragama	-7011
▁berhenti	-7012
▁dalamnyo	-7013
▁dipicayo	-7014
▁girlband	-7015
▁mahyeldi	-7016
▁manampek	-7017
▁panonton	-7018
▁ramadhan	-7019
▁tahunnya	-7020
▁tarutung	-7021
▁utamanya	-7022
▁bertujuan	-7023
▁keagamaan	-7024
▁paristiwa	-7025
▁rangkaian	-7026
▁singkatan	-7027
▁terbanyak	-7028
eptyphantes	-7029
▁kemenangan	-7030
▁memerintah	-7031
▁menentukan	-7032
▁pengadilan	-7033
▁lingkuangan	-7034
▁maningkekan	-7035
▁manyadiokan	-7036
▁patumbuahan	-7037
▁penduduknya	-7038
▁persetujuan	-7039
▁satusatunya	-7040
▁mengeluarkan	-7041
▁pambantuakan	-7042
▁panduduaknyo	-7043
▁samananjuang	-7044
▁infrastruktur	-7045
▁mengakibatkan	-7046
▁pandidikannyo	-7047
▁tjokroaminoto	-7048
bs	-7049
ju	-7050
ate	-7051
auk	-7052
car	-7053
ego	-7054
eki	-7055
eso	-7056
gra	-7057
kus	-7058
lai	-7059
ney	-7060
odo	-7061
osp	-7062
ost	-7063
pon	-7064
rid	-7065
rir	-7066
sai	-7067
tah	-7068
uma	-7069
▁39	-7070
▁42	-7071
▁52	-7072
▁بن	-7073
2019	-7074
aiah	-7075
emuk	-7076
ewas	-7077
fyan	-7078
ijen	-7079
ikia	-7080
inku	-7081
itab	-7082
taya	-7083
utif	-7084
üero	-7085
▁ais	-7086
▁alj	-7087
▁any	-7088
▁gan	-7089
▁hiu	-7090
▁ija	-7091
▁kms	-7092
▁maw	-7093
▁miz	-7094
▁nel	-7095
▁roc	-7096
▁sei	-7097
▁tud	-7098
▁umm	-7099
agari	-7100
agede	-7101
ambek	-7102
amuko	-7103
andoi	-7104
ektif	-7105
eslim	-7106
imbar	-7107
kyunk	-7108
lands	-7109
obrom	-7110
turut	-7111
uhkan	-7112
unsur	-7113
▁cind	-7114
▁gran	-7115
▁kair	-7116
▁kami	-7117
▁mada	-7118
▁noer	-7119
▁nyak	-7120
▁otor	-7121
▁prim	-7122
▁surv	-7123
▁zayd	-7124
adokan	-7125
adonyo	-7126
ahtera	-7127
aluaan	-7128
arawan	-7129
ejarah	-7130
enakan	-7131
inkuyu	-7132
yakini	-7133
▁1966,	-7134
▁2010.	-7135
▁artis	-7136
▁batub	-7137
▁begal	-7138
▁fakta	-7139
▁gengg	-7140
▁hamid	-7141
▁hilia	-7142
▁iklan	-7143
▁jalil	-7144
▁jambu	-7145
▁janih	-7146
▁karet	-7147
▁konon	-7148
▁layar	-7149
▁moral	-7150
▁murni	-7151
▁parit	-7152
▁prior	-7153
▁proto	-7154
▁punah	-7155
▁roman	-7156
▁sabab	-7157
▁sayok	-7158
▁sukar	-7159
▁tabel	-7160
▁tando	-7161
▁taran	-7162
▁tewas	-7163
▁wadah	-7164
ammacam	-7165
embahan	-7166
erlukan	-7167
migrasi	-7168
ografer	-7169
▁agüero	-7170
▁antrop	-7171
▁banang	-7172
▁bayang	-7173
▁ijazah	-7174
▁implem	-7175
▁inyiak	-7176
▁junior	-7177
▁jutaan	-7178
▁kontak	-7179
▁krisis	-7180
▁kuning	-7181
▁mahmud	-7182
▁panyab	-7183
▁samaso	-7184
▁turuik	-7185
▁vulkan	-7186
empatkan	-7187
kyunkwan	-7188
untungan	-7189
▁bangkok	-7190
▁develop	-7191
▁dokumen	-7192
▁ekologi	-7193
▁interpr	-7194
▁kanguru	-7195
▁kolonel	-7196
▁molekul	-7197
▁nations	-7198
▁pattaya	-7199
▁pekerja	-7200
▁pikiran	-7201
▁puluhan	-7202
▁senjata	-7203
▁sumbers	-7204
▁tapuang	-7205
▁begalung	-7206
▁bergelar	-7207
▁bukanlah	-7208
▁dalamnya	-7209
▁kejadian	-7210
▁koperasi	-7211
▁memegang	-7212
▁menganut	-7213
▁nanggroe	-7214
▁pandapek	-7215
▁setengah	-7216
▁wonogiri	-7217
▁bersamaan	-7218
▁derinkuyu	-7219
▁eksekutif	-7220
▁intelijen	-7221
▁perbaikan	-7222
▁prioritas	-7223
▁sejahtera	-7224
▁tergabung	-7225
▁disebutkan	-7226
▁diturunkan	-7227
▁karyakarya	-7228
▁memerlukan	-7229
▁pendudukan	-7230
▁tahuntahun	-7231
▁unsurunsur	-7232
▁motherboard	-7233
▁penerbangan	-7234
▁dimanfaatkan	-7235
▁sungkyunkwan	-7236
▁diperkenalkan	-7237
37	-7238
87	-7239
be	-7240
he	-7241
ux	-7242
▁أ	-7243
112	-7244
aif	-7245
apo	-7246
bes	-7247
enk	-7248
ews	-7249
for	-7250
jec	-7251
med	-7252
oel	-7253
pah	-7254
rul	-7255
tel	-7256
uar	-7257
ugo	-7258
ukt	-7259
yum	-7260
▁37	-7261
▁ec	-7262
▁zo	-7263
2015	-7264
alai	-7265
anon	-7266
erto	-7267
erus	-7268
ical	-7269
tama	-7270
umur	-7271
▁amo	-7272
▁bai	-7273
▁bib	-7274
▁cut	-7275
▁dki	-7276
▁gil	-7277
▁haf	-7278
▁lik	-7279
▁lov	-7280
▁nor	-7281
▁zaq	-7282
antin	-7283
ataik	-7284
bahan	-7285
iaran	-7286
urung	-7287
▁1918	-7288
▁akun	-7289
▁alis	-7290
▁devi	-7291
▁dikl	-7292
▁duku	-7293
▁hist	-7294
▁ijuk	-7295
▁kana	-7296
▁lans	-7297
▁maan	-7298
▁naga	-7299
▁obat	-7300
▁prom	-7301
▁sara	-7302
▁siak	-7303
▁skor	-7304
▁soew	-7305
▁teen	-7306
▁tiba	-7307
▁ubek	-7308
bitung	-7309
rahman	-7310
rempah	-7311
▁alung	-7312
▁brach	-7313
▁dahul	-7314
▁detik	-7315
▁kalam	-7316
▁kasim	-7317
▁langg	-7318
▁lipat	-7319
▁lukah	-7320
▁marga	-7321
▁mulia	-7322
▁orkes	-7323
▁perti	-7324
▁psiko	-7325
▁ragam	-7326
▁syair	-7327
▁tanpo	-7328
▁wisnu	-7329
akarsai	-7330
amasama	-7331
ampingi	-7332
ernakan	-7333
lawanan	-7334
▁abdoel	-7335
▁adonan	-7336
▁gejala	-7337
▁kutiko	-7338
▁paderi	-7339
▁pambar	-7340
▁rasuna	-7341
▁sambia	-7342
▁taiwan	-7343
▁target	-7344
▁ternak	-7345
▁zaquan	-7346
▁zaydun	-7347
umpulkan	-7348
▁baterai	-7349
▁dibawah	-7350
▁dongeng	-7351
▁formasi	-7352
▁jenjang	-7353
▁kirakir	-7354
▁langkok	-7355
▁latihan	-7356
▁pagawai	-7357
▁perwira	-7358
▁rendang	-7359
▁residen	-7360
▁sentral	-7361
▁tekanan	-7362
erintahan	-7363
ubuangkan	-7364
▁katakata	-7365
▁mambukak	-7366
▁panaliti	-7367
▁penerjem	-7368
▁penganut	-7369
▁pengurus	-7370
▁sabatang	-7371
▁setinggi	-7372
▁spesimen	-7373
▁terpisah	-7374
▁tuntutan	-7375
▁utamonyo	-7376
operasikan	-7377
▁argentina	-7378
▁cenderung	-7379
▁ditujukan	-7380
▁ditunjuak	-7381
▁dukuangan	-7382
▁identitas	-7383
▁kabijakan	-7384
▁kebiasaan	-7385
▁manjalang	-7386
▁menguasai	-7387
▁pelatihan	-7388
▁tingkatan	-7389
▁bangkinang	-7390
▁dinobatkan	-7391
▁dipindahan	-7392
▁maninggaan	-7393
▁menawarkan	-7394
▁panyalangg	-7395
▁tagantuang	-7396
▁terjadinya	-7397
▁bersamasama	-7398
▁burhanuddin	-7399
▁patandingan	-7400
▁pengelolaan	-7401
▁pertunjukan	-7402
▁manghasilkan	-7403
▁mengundurkan	-7404
▁rempahrempah	-7405
64	-7406
84	-7407
89	-7408
we	-7409
ym	-7410
193	-7411
ice	-7412
ijk	-7413
let	-7414
rin	-7415
rup	-7416
udo	-7417
ueh	-7418
ume	-7419
upi	-7420
yaj	-7421
yid	-7422
▁74	-7423
▁8,	-7424
▁ga	-7425
▁lk	-7426
2014	-7427
afah	-7428
alak	-7429
awab	-7430
baya	-7431
cess	-7432
endi	-7433
erei	-7434
iana	-7435
ille	-7436
indu	-7437
ling	-7438
onia	-7439
trol	-7440
upuk	-7441
zuki	-7442
▁0.4	-7443
▁14,	-7444
▁alh	-7445
▁anu	-7446
▁dub	-7447
▁hay	-7448
▁his	-7449
▁ida	-7450
▁kew	-7451
▁kuh	-7452
▁lum	-7453
▁mcd	-7454
▁rub	-7455
▁tom	-7456
▁voc	-7457
abang	-7458
adari	-7459
ankan	-7460
awasi	-7461
dalam	-7462
encia	-7463
ikuik	-7464
presi	-7465
tarik	-7466
ungga	-7467
▁1938	-7468
▁1967	-7469
▁adap	-7470
▁alih	-7471
▁fase	-7472
▁fell	-7473
▁gayo	-7474
▁high	-7475
▁ikua	-7476
▁jati	-7477
▁java	-7478
▁khat	-7479
▁kunj	-7480
▁lari	-7481
▁maun	-7482
▁misi	-7483
▁mult	-7484
▁prri	-7485
▁semp	-7486
▁tani	-7487
▁tant	-7488
▁tran	-7489
▁vari	-7490
abdian	-7491
ajukan	-7492
akaian	-7493
aliran	-7494
antiak	-7495
anyian	-7496
atikan	-7497
awalib	-7498
dangan	-7499
eratur	-7500
ikahan	-7501
ingati	-7502
ingrat	-7503
oharjo	-7504
oputri	-7505
pindah	-7506
uahnyo	-7507
uniang	-7508
▁1998,	-7509
▁2016,	-7510
▁akrab	-7511
▁asean	-7512
▁bakab	-7513
▁bakat	-7514
▁benar	-7515
▁burak	-7516
▁cheng	-7517
▁citra	-7518
▁class	-7519
▁darmo	-7520
▁femin	-7521
▁human	-7522
▁kairo	-7523
▁kongo	-7524
▁labor	-7525
▁lahat	-7526
▁navis	-7527
▁pasca	-7528
▁power	-7529
▁rahim	-7530
▁senin	-7531
▁surel	-7532
ajarkan	-7533
akangan	-7534
angaruh	-7535
ekankan	-7536
etakkan	-7537
omputer	-7538
spirasi	-7539
▁armada	-7540
▁cherly	-7541
▁dampak	-7542
▁etihad	-7543
▁gareja	-7544
▁gelgel	-7545
▁kipang	-7546
▁layang	-7547
▁malamb	-7548
▁mangec	-7549
▁mengab	-7550
▁mengal	-7551
▁musisi	-7552
▁pandak	-7553
▁pelita	-7554
▁rahang	-7555
▁sekutu	-7556
▁seluas	-7557
▁sunnah	-7558
▁tamwan	-7559
▁taseba	-7560
▁teater	-7561
▁waqwaq	-7562
▁widodo	-7563
encanaan	-7564
eritakan	-7565
▁artinyo	-7566
▁citarum	-7567
▁dibandi	-7568
▁dibuang	-7569
▁ditolak	-7570
▁dulunyo	-7571
▁intelek	-7572
▁kerabat	-7573
▁manipur	-7574
▁moeslim	-7575
▁mutiara	-7576
▁nurbaya	-7577
▁pampang	-7578
▁pandang	-7579
▁pangulu	-7580
▁pardana	-7581
▁sewaktu	-7582
▁sikerei	-7583
▁subagai	-7584
▁tabaiak	-7585
▁tekstil	-7586
orientasi	-7587
▁atlantik	-7588
▁bakaitan	-7589
▁berganti	-7590
▁bukubuku	-7591
▁didukung	-7592
▁dijuluki	-7593
▁dikuasai	-7594
▁dimainan	-7595
▁dipahami	-7596
▁ditampek	-7597
▁hidupnya	-7598
▁kirakira	-7599
▁pajabaik	-7600
▁parairan	-7601
▁pasatuan	-7602
▁pematang	-7603
▁perayaan	-7604
▁pinjaman	-7605
▁sapuluah	-7606
▁saudagar	-7607
▁syarifah	-7608
▁thawalib	-7609
▁valencia	-7610
▁diperoleh	-7611
▁ditangkap	-7612
▁gelandang	-7613
▁investasi	-7614
▁kepadatan	-7615
▁kerjasama	-7616
▁kerusakan	-7617
▁mangatoan	-7618
▁menentang	-7619
▁menjelang	-7620
▁observasi	-7621
▁parameter	-7622
▁patahanan	-7623
▁sukoharjo	-7624
▁bahanbahan	-7625
▁keterangan	-7626
▁konservasi	-7627
▁mamutuihan	-7628
▁pengalaman	-7629
▁pengunjung	-7630
▁peternakan	-7631
▁temperatur	-7632
▁bukiktinggi	-7633
▁development	-7634
▁informatika	-7635
▁manyababkan	-7636
▁balaenoptera	-7637
▁implementasi	-7638
▁memanfaatkan	-7639
▁padangpanjang	-7640
',	-7641
83	-7642
du	-7643
ez	-7644
fr	-7645
gn	-7646
hm	-7647
ان	-7648
aju	-7649
ako	-7650
arl	-7651
eni	-7652
imo	-7653
kal	-7654
obo	-7655
tam	-7656
ubo	-7657
▁46	-7658
▁51	-7659
▁56	-7660
▁75	-7661
▁dk	-7662
▁eb	-7663
▁kp	-7664
ajat	-7665
burg	-7666
eikh	-7667
eluk	-7668
ular	-7669
ulat	-7670
urau	-7671
▁134	-7672
▁alg	-7673
▁amr	-7674
▁ann	-7675
▁dpp	-7676
▁fot	-7677
▁net	-7678
▁nig	-7679
▁rap	-7680
▁rev	-7681
▁tum	-7682
adana	-7683
ahulu	-7684
aluan	-7685
arana	-7686
egasi	-7687
ekutu	-7688
entah	-7689
eropa	-7690
ikaik	-7691
onstr	-7692
pasar	-7693
silah	-7694
udang	-7695
yrhop	-7696
▁1926	-7697
▁1934	-7698
▁2020	-7699
▁alim	-7700
▁dias	-7701
▁giat	-7702
▁hias	-7703
▁kada	-7704
▁lati	-7705
▁sken	-7706
alikan	-7707
apekan	-7708
asifik	-7709
egrasi	-7710
ekatan	-7711
entuan	-7712
esimen	-7713
oritas	-7714
umuman	-7715
unikan	-7716
▁2016.	-7717
▁aidil	-7718
▁bayam	-7719
▁cikal	-7720
▁corak	-7721
▁hasia	-7722
▁kapan	-7723
▁kerap	-7724
▁kunci	-7725
▁lemak	-7726
▁leste	-7727
▁mamas	-7728
▁modal	-7729
▁teras	-7730
▁wujud	-7731
amaikan	-7732
ambilan	-7733
arahkan	-7734
astikan	-7735
▁bangis	-7736
▁berkas	-7737
▁berkat	-7738
▁diliek	-7739
▁ibrani	-7740
▁kertas	-7741
▁mamuek	-7742
▁memuat	-7743
▁mundur	-7744
▁nuklia	-7745
▁racing	-7746
▁selang	-7747
▁sikoci	-7748
▁supaya	-7749
▁takaik	-7750
▁tungga	-7751
ancurkan	-7752
asbitung	-7753
atangkan	-7754
esidenan	-7755
tifikasi	-7756
yrhopala	-7757
▁baganti	-7758
▁bakuaso	-7759
▁belando	-7760
▁british	-7761
▁darurat	-7762
▁dicapai	-7763
▁didalam	-7764
▁elephas	-7765
▁geodesi	-7766
▁kontrov	-7767
▁kuniang	-7768
▁mambali	-7769
▁membeli	-7770
▁minimal	-7771
▁naungan	-7772
▁ombilin	-7773
▁pedoman	-7774
▁pemeran	-7775
▁penjaga	-7776
▁praktis	-7777
▁samacam	-7778
▁sesudah	-7779
▁sirkuit	-7780
▁ukraina	-7781
▁upacaro	-7782
ahuntahun	-7783
▁biasanyo	-7784
▁debutnya	-7785
▁delegasi	-7786
▁ditandoi	-7787
▁diyakini	-7788
▁konsumsi	-7789
▁marantau	-7790
▁pabedaan	-7791
▁panggiat	-7792
▁pemenang	-7793
▁personal	-7794
▁silsilah	-7795
▁skenario	-7796
▁sukadana	-7797
▁tabanyak	-7798
▁indragiri	-7799
▁manyimpan	-7800
▁memanjang	-7801
▁pambuatan	-7802
▁pamikiran	-7803
▁pamilihan	-7804
▁parangkek	-7805
▁pendatang	-7806
▁pengajian	-7807
▁tagabuang	-7808
▁basamosamo	-7809
▁dilaporkan	-7810
▁dinyatakan	-7811
▁kakaisaran	-7812
▁mengurangi	-7813
▁pendapatan	-7814
▁pengajaran	-7815
▁permintaan	-7816
▁tergantung	-7817
▁manunjuakkan	-7818
▁pertimbangan	-7819
▁sumbersumber	-7820
▁brachyrhopala	-7821
▁kemasyarakatan	-7822
79	-7823
bd	-7824
ms	-7825
oa	-7826
pw	-7827
sc	-7828
sd	-7829
tn	-7830
195	-7831
ahr	-7832
ahu	-7833
aza	-7834
cas	-7835
chn	-7836
eij	-7837
ere	-7838
ety	-7839
fiq	-7840
ght	-7841
icu	-7842
ism	-7843
kop	-7844
lok	-7845
mag	-7846
mah	-7847
obi	-7848
saq	-7849
set	-7850
tro	-7851
uno	-7852
uro	-7853
▁43	-7854
▁78	-7855
▁79	-7856
▁aj	-7857
▁ft	-7858
▁ix	-7859
▁pg	-7860
▁to	-7861
▁uc	-7862
▁vo	-7863
adan	-7864
ajoe	-7865
amuk	-7866
ansa	-7867
anye	-7868
asio	-7869
eeks	-7870
emat	-7871
erut	-7872
etri	-7873
ison	-7874
opun	-7875
rium	-7876
tang	-7877
ukur	-7878
urie	-7879
yoan	-7880
▁0.5	-7881
▁0.7	-7882
▁179	-7883
▁aie	-7884
▁aro	-7885
▁baa	-7886
▁biz	-7887
▁bom	-7888
▁bro	-7889
▁cam	-7890
▁fig	-7891
▁god	-7892
▁hek	-7893
▁hol	-7894
▁hul	-7895
▁out	-7896
▁roy	-7897
▁taw	-7898
▁tus	-7899
ambar	-7900
ander	-7901
angin	-7902
arati	-7903
arato	-7904
ayana	-7905
endra	-7906
grafi	-7907
hiwat	-7908
iness	-7909
ingat	-7910
injam	-7911
intai	-7912
menia	-7913
murid	-7914
oalan	-7915
olasi	-7916
price	-7917
ugian	-7918
under	-7919
utuih	-7920
▁1951	-7921
▁apbd	-7922
▁barb	-7923
▁bayi	-7924
▁cari	-7925
a	-7926
▁	-7927
n	-7928
i	-7929
e	-7930
u	-7931
r	-7932
t	-7933
k	-7934
s	-7935
d	-7936
m	-7937
o	-7938
l	-7939
g	-7940
p	-7941
b	-7942
h	-7943
y	-7944
j	-7945
,	-7946
c	-7947
1	-7948
.	-7949
w	-7950
0	-7951
f	-7952
2	-7953
9	-7954
v	-7955
5	-7956
3	-7957
4	-7958
8	-7959
6	-7960
7	-7961
z	-7962
'	-7963
x	-7964
q	-7965
ا	-7966
é	-7967
ل	-7968
ā	-7969
ي	-7970
ن	-7971
م	-7972
و	-7973
ب	-7974
د	-7975
ü	-7976
?	-7977
á	-7978
ر	-7979
س	-7980
ó	-7981
ˈ	-7982
í	-7983
ö	-7984
ī	-7985
ع	-7986
ت	-7987
α	-7988
ğ	-7989
ح	-7990
ف	-7991
λ	-7992
أ	-7993
ه	-7994
ū	-7995
